  t
h e
  a
  s
 t he
  w
n d
e d
  b
 t o
 a nd
  h
  f
  i
  l
 w a
  he
r e
o u
  d
  m
o n
  c
  p
a y
i n
 wa s
e r
 s a
i t
  n
i m
a r
l l
i d
o m
 h a
 the y
  g
i s
a t
in g
o t
 i t
n t
l e
a n
o r
e nd
 s he
 t im
i r
o f
 t h
 b e
i g
 w e
a m
 p l
 l i
e t
  y
  "
o w
r i
v er
 i n
  u
 pl ay
u t
l y
 w it
 sa id
 wit h
 d ay
p p
 he r
 h is
  r
  e
l d
k ed
o o
  on
 y ou
c e
v e
k e
 s t
 b ig
t e
ver y
c k
s t
u n
 ha pp
 m a
ri end
 f riend
x t
 b a
he r
 ha d
 d o
 u p
 n ot
 wa nt
 m om
 b ut
  of
of te
end ofte
< |
| >
endofte xt
it t
s e
on e
 s o
 happ y
 th at
 b o
  very
 sa w
ou ld
' s
e s
 f or
  k
itt le
 l ittle
 s h
e n
 the re
c h
 n am
 tim e
 n e
ou nd
 a n
. "
  j
 nam ed
 s m
 we re
 want ed
 li ly
 friend s
 b ir
 to m
ou t
 w h
t he
v ed
! "
 bir d
 s u
h t
 a ll
a l
 to o
om e
 s p
 we nt
l p
r a
on ce
e l
 he lp
a d
u g
 i s
 l oo
i l
 up on
 l o
t er
r y
a ll
 a s
 to y
o re
 f un
  o
g et
  re
am e
i nd
i ll
 c at
get her
id e
 d id
 to gether
 f r
 c an
 s e
 do g
 a t
 t re
oo d
i c
 c ould
 on e
t ed
 the ir
 r o
 ba ll
 g ir
ar d
ar k
 l e
 gir l
 g o
 play ed
 h im
e c
w ay
 c a
? "
m y
he d
a in
 k n
 a re
  out
he n
' t
u m
 the m
 bo y
 sa d
d e
u l
 tre e
 m an
ot her
ou g
 c l
 ha ve
 lo ved
 f ound
 loo ked
 st ar
u r
 su e
 s c
 ba ck
ow n
h ing
a s
i ly
 fr om
 li ke
 ma x
 e very
 be c
 m e
s ide
f ul
 w ould
on g
 p ark
 l a
o p
 sa m
 f a
 li ked
r ound
 t a
el t
 c ar
ig ht
 ma ke
 be n
 f elt
 the n
 as ked
 n o
ar ed
om et
 a l
 se e
 c ame
 ne w
 star ted
oug ht
ou se
 w hen
 s omet
il ed
 a g
 f l
 b r
  other
 g ood
 sp ot
 sm all
i e
 wh at
 sm iled
n ed
ri ed
ing s
t h
 s ay
 f e
i a
 f ind
 w or
 a way
 th ought
 ma de
 e x
 c o
 h ome
 somet hing
 play ing
t y
i ce
 p ut
u e
 m u
 wa l
n y
i le
 ag ain
k ing
 r an
 d own
 s ome
d d
a ch
s s
 toy s
 p r
 b l
c y
oo k
 sc ared
 too k
 la ug
b le
a ve
 h ouse
 s un
 s w
 a round
 bo x
 you r
 m y
 le ar
 w ill
re t
 c h
is h
 b u
e p
ou d
 li ved
 th ings
i ck
en ed
g e
pp ed
t im
, "
 g et
an k
y es
n a
e w
 l ot
 wh o
 l et
u cy
ot h
um p
u ck
 th is
 m ia
 t ried
 man y
 a b
 kn ow
 g ot
it ed
u re
u st
 d ad
f f
e ll
 ab out
 i nt
 say s
 r ed
i ve
nd er
 kn ew
 p ret
 p o
a re
a u
 d ec
l ily
is e
ou s
 an y
q u
a ce
 ca re
 m ore
 j o
 p ic
 p u
 be st
 o p
f ter
au se
 bec ame
 l ucy
 in side
 loo k
 wa ter
 p e
 h ug
way s
� �
 h o
 lear ned
 bec ause
 bo b
 ex c
 al ways
it e
 u n
 b oth
  v
 out side
 int o
 ro om
 sh ow
id ed
 laug hed
 m o
 g re
 e at
 dec ided
er s
 g ra
 j ump
ll y
t om
  ke
a p
 l ong
 n ice
 exc ited
 r un
p r
m a
 su r
ou r
the y
 fe el
 ta ke
 s k
 to ld
 t r
 fa st
 s l
 h ow
b b
le w
 ro ck
 s or
in y
 e ach
 pret ty
 sur pr
 n ow
 g ave
f e
im al
 an imal
in k
r o
 mu ch
w h
g ed
 t e
a nt
s ed
 o ld
b ut
 ne ed
 th an
 st r
 u nder
c hed
 j ust
  or
 sor ry
 to w
 l is
 a fter
 c le
 wal ked
 ha nd
 f ish
ig h
es s
is ed
he re
a ck
 t ur
 k ind
ve n
 cl o
 wa t
 animal s
v ing
 i f
 sk y
 a my
 be t
b y
 happ ened
 f ood
 t ry
s o
at e
 fl ow
 i de
 ne ar
 t w
p l
 lis te
 be ar
g ry
 did n
 f o
 ide a
 e n
 f i
 d on
 f in
 d an
 r a
th ank
 it s
 bl ue
 f lew
ec i
all y
re am
 sh are
 care ful
 ca ke
 he ard
 bet ter
 st or
 sp eci
 speci al
 every one
 a m
ur t
 c ome
le t
a se
p ec
 e ven
 lot s
e nt
i on
 w ind
  end
 c u
m ore
 cle an
 ne ver
l f
o ke
 b ug
 any more
dd en
m om
s h
in e
 ma g
 b y
 c om
op le
 h ard
 sa fe
 pe ople
b er
 t al
 f ly
dden ly
 g r
 an na
or t
 f ore
 o ver
 g ive
 lo ve
r m
 co l
 ba d
o g
ad y
 h igh
 c he
 g round
 f am
 do or
im b
 sh iny
 cl imb
 pr oud
 op ened
 h urt
 mom my
 pic ked
 be a
b e
pec ted
 l oud
e x
 wa y
 surpr ised
 g l
y ou
' m
 un ex
 unex pected
i ld
 b ook
 than ked
 f ar
um my
c t
 c all
u ff
n ing
 col or
ard en
 g arden
 mag ic
 e ver
m p
 p ar
oug h
k ay
 hug ged
 st ill
 d i
 so on
 u nt
 pl ace
 of f
oo l
 sa ra
 sm ile
 wal k
n o
  qu
 jump ed
 fam ily
 unt il
 t ra
j o
 k id
he s
 sh ould
g er
 st ay
c an
 wh ile
 st ick
i p
 ne xt
itt y
 str ong
 fore st
b o
 st o
 d ra
 a pp
f t
 s qu
d y
 b ra
e m
uff y
 bo at
 s of
 gre at
 bea ut
a nd
a k
 help ed
 sa lly
le ase
t ure
 fr og
 happ ily
p t
 pic ture
 beaut i
 stor y
 beauti ful
i es
an e
un ny
 show ed
 re m
 kid s
 br oke
 call ed
 m et
 op en
is t
 fl uffy
 b unny
 k it
  z
 m or
 be ing
 tow n
 ha t
 liste n
 sof t
 d e
a ge
 a d
 wat ch
w hen
 sto pped
re l
 r ain
 an gry
ve nt
 y ummy
 do ll
 k itty
bb it
 tr uck
 could n
ck s
ar y
re e
 ra bbit
 m ouse
is hed
ow l
i z
dd ed
 a te
re ss
 ke ep
 sl ide
 le ave
 lo st
 bra ve
 i mp
 wa rm
 fa ce
 g ame
 tw o
f ore
 fe ll
 flow ers
e re
 w here
w e
 b ed
 ho le
 gre en
 c ry
 p a
ll o
 no ise
th at
 al so
 be fore
 sun ny
 no dded
 sa t
 fi x
g an
se lf
 d uck
h i
 ha ving
 s n
 y ell
ir ed
 c ook
 ke pt
� �
d ay
wh at
 p ain
 he ar
� �
 st ore
 cat ch
ill y
 hand s
 u se
l ook
 s na
a ble
 squ ir
 app le
 c ra
the n
 squir rel
 s ing
ir st
 u sed
 th r
 ex pl
 bird s
 fun ny
 to u
b en
 loo king
 u s
 wa it
o on
 t ired
 go ing
 b re
 bl o
 su ddenly
  our
 sw e
ay be
 me an
le ep
an ge
t hing
ug ht
u ll
l ed
 pu ll
 t ri
 sa nd
 di ff
 rem em
 fa v
a ir
 po nd
 ha s
 j ack
 par ty
 kit c
 kitc hen
 fl o
 i ce
 w r
 r u
 th ink
 d r
or n
 wor k
t ing
 remem ber
 he ad
 h op
s u
 wor ked
 tur n
 be h
z y
 re al
 m ess
 o kay
i ous
ll ow
n g
h n
 p lease
he llo
 w o
 th ank
 other s
 s ound
 mor al
 e yes
  ri
 clo s
at h
 tal k
re w
 sh ared
 ad vent
jo y
 fo llow
  “
 fav or
 as k
 favor ite
 m on
 r ight
s p
 cu ri
e ar
 c ut
 en joy
 co ld
 he re
 imp ort
 h ill
 v o
 f irst
 d ir
 ma king
 curi ous
 p ie
 y ard
 sh o
 swe et
 flow er
d on
 mo ve
 to p
 c on
p e
 d is
  own
 re st
re ed
 br ight
 dra w
 import ant
c ed
 lear n
 p ap
 p ick
 be gan
 t all
 wat ched
 s leep
 be l
w here
ou nt
 st op
 n ight
 l ady
 pr in
a fter
 r ace
 th ing
w ow
 h ot
 ta il
st er
 h id
 h un
 diff ere
 ag reed
 flo or
 for g
 sh out
by e
 m is
 t iny
q ue
ec t
i ed
 d ark
ar a
 ba g
 gra ss
 wor ry
 ta ble
 s ong
f u
c ked
 yell ow
 t ell
 far m
 need ed
 re ad
 b ar
 leave s
 vo ice
ar ing
s hed
u it
 tre es
 sw ing
 ha ir
s he
 d ress
c o
t le
wh y
 differe nt
 d el
 wal king
 advent ure
 surpr ise
 tur ned
� �
 m r
 hun gry
im es
 car s
 do es
ma x
 color s
 wh y
s ue
 st e
 laug h
su ddenly
 li on
 clos er
 gra nd
 beh ind
l a
a ched
 pret end
s am
ie nt
er ed
 pr om
 broke n
 w ood
 c ried
an na
 we t
 pie ce
 friend ly
 d a
 tim my
a ke
 f ull
 tra in
is y
 dan ce
 somet imes
 tou ch
 an other
 climb ed
 g one
 p er
 sm ell
bb ed
 sw im
 blo cks
 a ma
 feel ing
 a nt
 pap er
 ama z
pp y
 good bye
 but ter
 ro ll
 run ning
 sl ow
 j ane
 a c
 help ing
 fa ir
 p en
 ho ld
  owl
 re ached
 re ady
 on ly
 liste ned
ic ed
le s
 l ight
 cl a
at er
ck et
 g i
s ara
r ay
 c ream
 d in
 f ight
ke y
 d ri
 bob o
 s it
 re pl
 clo se
 pu shed
 ba by
a v
 w ise
 l ess
 d one
as s
c ome
i ke
as h
 wa g
 wa ll
 sn ow
 wo nder
 c ool
 mu st
 se es
 fr uit
 gl ad
ie ld
 bu s
 mom ent
 try ing
 d ream
 fi re
 m aybe
 thr ough
 st uck
at her
o om
 w ished
a f
am es
 re ach
 a r
 be en
 jo in
 wind ow
 expl ore
 b it
 look s
 do ing
 pl an
te n
 bu y
 shout ed
 h ide
 a ir
m ia
 bu ild
 ne st
 cl oud
a g
 la nd
 sw am
 qu ick
 sc ary
 f all
 com ing
 m at
 w in
 br an
 e m
ll a
 p ink
 p et
 b lew
one y
 se en
 per f
 pl ant
a c
 ch ild
 sp l
 dir ty
 he ld
 every where
 big ger
 m ight
 le ft
 repl ied
av y
 s ig
 fin ally
 su re
 under st
f r
o kay
 tre at
 color ful
 pull ed
 gra bbed
 butter f
 turn s
 ch air
 d ro
iz ed
 remember ed
o h
 f ill
dd y
 cu p
 nam e
 ca st
 th ree
 c ount
or m
 m um
ou p
at ion
 ho pped
 m ar
 stay ed
 m ark
 jo b
 cla pped
d er
 g ames
 b ot
 wa ited
 br own
' re
 p at
 ca nd
 gr ow
 not iced
 ball oon
 less on
 any thing
 s et
 picture s
 wood s
 pain t
 m out
 mout h
 be e
 p ot
 wa ved
ow er
 enjoy ed
 l un
 grand ma
ro om
 al one
z e
th is
 ta st
 br other
d s
i x
p h
 se a
 st u
 like s
 to day
ou n
am p
 j u
 y ear
in s
" .
 th rew
 quick ly
 wh ite
 he avy
 t ight
 follow ed
ar t
 g ent
 butterf ly
 book s
 da isy
nt s
d o
 cook ies
sp ot
 de ep
s k
as ure
t o
z z
l ucy
t on
 jo hn
 b oun
ri es
u s
c le
 wor ld
 forg ot
 cl ot
 wr ong
 clot hes
 le af
 cast le
 c re
 p ur
 m ix
 we ar
 wh is
 bu ddy
n er
 k ing
ro ss
 but ton
 f ur
 n ap
 qu i
le ss
b ble
 ke y
 qui et
 sh aring
p le
 make s
 we ll
an g
r ot
 br ought
 r ound
 fo x
 p are
 want s
 him self
r ow
 a rm
u ed
 w on
 del ic
 r ide
 f ield
g g
 prin ce
 st one
m an
 dan ced
 bre ak
fu lly
ed dy
 tow er
 li la
 in s
ve l
th y
 dra g
 h it
 fast er
 con t
is ter
 gi ft
 tal ked
 n a
 w ish
 s ister
 sig n
 be ach
 le g
 mu s
 ri ver
 e le
 po l
 fin ished
 bran ch
 d ry
 every thing
fr om
ve s
 some one
 b ike
 drag on
 din ner
 dan ger
 bot tle
 mon ster
ard s
 z oom
 re ally
 v is
 b or
 mon key
 underst and
 sh in
 bl ack
an ce
 dad dy
i pp
 g u
jo hn
 p ig
re n
is s
 po in
 y es
h is
 c ow
 care fully
ct or
 e l
 wor ried
 pr o
am y
 cont in
 rock s
 e ar
 we l
 b owl
 fair y
im i
 sm art
 eat ing
 sna ke
 fill ed
wh ile
 w he
 pu dd
 s ide
se s
 f an
itt ing
j ust
en ce
 prom ised
 t eddy
 s illy
 sh ap
 happ en
 s oup
 mus ic
 f ree
f in
 h ig
 pare nts
 vis it
 mu d
 let ter
o s
at ed
 el se
 piece s
  que
as te
 ro ad
 child ren
 sh op
te ad
 b ite
 sa ng
 contin ued
 perf ect
 fly ing
 tal king
 ma il
 k ite
 e gg
 smile s
g y
 real ized
 b illy
ic y
 thr ow
 ins tead
a st
 with out
 sara h
 cra b
 wor ds
t s
 amaz ing
or d
. ”
 m other
 or ange
 laug hing
ia nt
 j ar
 wag ged
p lease
 mo ved
 se c
 mis s
 s itting
 pa w
 en ough
 clo sed
 wh ist
 wel come
 re s
f l
f ort
 shin ing
 st and
g ly
 danger ous
 cand y
 at t
f ish
c hes
 ro pe
 sa il
  ve
 str ange
 bar ked
 sec ret
 b ath
 dr ink
 tast y
 m imi
e y
bo b
 he al
bo ard
 cry ing
is es
 l one
i ver
 li ving
 hig her
m aybe
 farm er
  -
 lone ly
 p h
 bel ie
uck y
 p re
 own er
 sho es
 te ac
 mor ning
at o
ch ool
 j en
 delic ious
 sw ings
 s chool
 b ow
 sa ck
ra ct
 sc ream
am a
 pu sh
 pur ple
i ble
 doll s
 roll ed
ph ant
! ”
 st re
mom my
 h ar
 pudd le
 com p
ld er
 she ll
 get ting
 bl ank
 j e
 ask s
 la ke
 ba sk
 ele phant
 bask et
 ma d
 year s
z zy
 tr ou
 blank et
s et
 ca ught
 c orn
 tre asure
as ed
 m oney
b r
k ers
 run s
 w ore
i ch
on s
 sing ing
 hop ed
 p ile
 b one
 sam e
 jo e
 f it
 her self
 ro b
 w ings
 p ers
 m ine
 kn o
 apple s
 jo y
 p ill
 cut e
 m in
 teac her
 b at
 pl ane
 tom my
 gent le
 c ray
 car rot
c ing
 i g
 star t
 sp ark
 co at
 dro pped
 ball s
 se ar
 wa r
 day s
 do ctor
ll ie
 bir th
 w oke
 birth day
 c our
pp ing
 m il
 sp in
 pa st
fin ally
 fore ver
 whis kers
r ed
o k
 prom ise
 cour se
in ed
 hid ing
ught y
 ba nd
ad e
 na ughty
 te ach
 cook ie
 se ed
 br ing
 c ard
 che e
 c r
 mo st
 ar ri
m ing
at or
 f ence
 lun ch
 mil k
 bu sh
 sh r
 think s
 p op
i re
 slow ly
 e as
 u gly
b ow
 ju ice
ar p
 no se
 ch o
ump y
 sh arp
s w
e e
 o b
 v ill
 gre w
a le
 sna ck
 bel ong
j ack
 shap es
 an sw
fu sed
 n um
s y
 cre at
 hear t
 you ng
 ben ch
 stre et
 be lla
ir t
i er
 re l
' ll
m ed
 le o
 be ll
b all
 sh ake
n ot
 sp oon
 belie ve
 rob ot
 w ra
 l ate
 a ble
 rock et
ou ch
er ry
 se at
 bre ad
 bu cket
 n ut
 co in
 p ower
 magic al
 dir t
 po cket
 tou ched
 h or
 tur tle
 sh y
 in c
 kit ten
 bus y
 sh ook
 tw ins
 arri ved
 che ered
o st
 feel s
 le m
 gr ay
 cra w
 tr ue
 ne ck
 car ry
 tri p
 gr umpy
 amaz ed
l ing
 mo on
 stor m
i pped
 ta king
 fe w
o ve
 vill age
 l ucky
e ared
n ow
id ge
 whist le
 rain bow
a pp
 co ll
 stor ies
 fix ed
 pat ient
 pro ble
oo se
g ood
 proble m
 bu bble
 ru de
s c
 whe el
 su g
 sound s
 wonder ful
 li ve
 d ist
 sp e
ir p
 tow ards
 wa ve
 hug e
 c ir
 dri ver
o c
 d es
 boun ce
 t aste
il a
 co ver
 song s
fort able
or s
 car t
s ure
 str ing
 mom o
 sa l
 w ide
ig g
l ila
 chee se
ep end
k in
 re c
 dis app
 pu ppy
 prince ss
c ce
 treat s
ell y
 hold ing
 p ath
 che w
 su cce
 me et
 up set
 sm o
il ing
 ch irp
u b
 fight ing
 li fe
 c e
 w ild
 wor m
u p
 g iant
 l ay
 hop e
 hug s
 gra b
ad ow
 bug s
 s our
 pe ace
u nt
our n
 j ourn
 h oney
 j ew
 jo ke
 a v
 smo oth
 b an
 not e
 jew el
 em ma
 no ises
 cl oth
 b ri
 s er
 snow man
 smell y
 m ist
ount ain
 in v
 j elly
 land ed
ul ar
pp er
one st
 ca ve
 n et
 f le
 th in
 bo ss
 h onest
r ing
 r ad
 dog s
 fr ed
 bea k
 see k
al m
 dri ve
 an n
 ban an
 par t
un g
 can not
 mis sed
f ted
 l ater
 mo lly
 a ct
 ig n
o l
 star s
 m ed
re ad
 st ep
 spl ash
 s ick
i fe
 o ven
 dro ve
 spl as
 she lf
 c ross
ig er
 ex p
 br u
 duck s
fl ower
 fo ot
 was n
b led
he y
 ac ross
l ater
 un i
 s el
 forg ive
 sand w
 t id
 fan cy
 help ful
ate ful
 adventure s
 or gan
 gl ow
 was h
 b ought
 gr ateful
 te a
i an
 re my
 l ine
 sl id
 as h
 ch ange
 com es
 for get
 heal thy
 pu zz
 pill ow
 con fused
 la st
 z oo
 p ract
 d ish
 v al
 o llie
 ste pped
 wor king
 i ma
ere st
er y
 int erest
 l ad
 sel fish
 e lder
p a
 al ong
 sa ve
 who le
 eas y
 elder ly
 wo lf
 stick s
 watch ing
 b ark
 st ret
it y
 tid y
 te am
co l
w ard
 any one
 m el
 mess y
 ph one
 take s
 ch ased
 p ri
 my ster
 wr ite
iz e
am ed
 we ak
 ta pe
 hor se
 m ama
 sh irt
 lad der
ir d
 cle ver
 leg s
pec t
 lem on
m m
 sp id
 fe ather
e ver
 m ind
 p as
 dog gy
 plant s
 long er
 pers on
 ro se
 e mp
 li ft
 p our
 pr ot
 p an
 sp icy
 emp ty
so on
 face s
 bo ot
s ally
 see med
 co zy
 h um
 lo ck
 pretend ed
 p in
 que en
 sleep y
 re t
er t
 sp o
 che er
 wait ing
 cloud s
 st ir
 fin ish
 sa ved
ion s
 po ppy
p ill
 ma ch
 prin t
it ing
pill ar
 c alm
? ”
 e nt
ain ed
 ret ur
u ally
 lis a
 cat er
 jump ing
 scream ed
 go at
ke n
 cater pillar
 r ing
 he l
 p ool
 fa ke
 the se
 chirp y
ul t
 t un
d en
 su ch
or k
oo p
 su pp
 interest ing
 wonder ed
c om
a ff
 t ie
 fruit s
 ri ch
 duck y
 mist ake
un k
 mat ch
iz z
 num ber
 th ough
 dr ank
bo x
 sp ray
 trou ble
h in
bb y
 pl ate
 st ra
 boss y
 bru sh
iss ors
d ge
op e
ic ken
 on to
 sc issors
 k ick
 g ather
 e vent
te nt
 ch icken
e k
 build ing
 fur ry
 ben ny
 d rew
 mach ine
 t v
 swim ming
 hid den
le br
 e lla
 n orm
g ine
en s
 z ip
 sug ar
 she ep
 give s
 ce lebr
on t
 c oo
 norm al
 c her
 cray ons
 l ar
 sp ring
 spid er
 w ing
 gl ue
 love ly
 clean ed
k itty
 expl or
 arm s
m ent
 fr ont
 w is
izz a
et er
 f ing
 p ack
 pen c
 poin ted
 penc il
 ca ge
 tr ust
 app eared
 h ur
igh te
 put s
op h
 gent ly
 smell ed
a ur
sc ap
 pr ay
 cir cle
 g ate
os aur
 lun a
 din osaur
 i cy
 p izza
 di zzy
 sear ch
 mat ter
y ard
 not hing
 te ar
 back yard
 cl ass
 sm iling
 f il
 dr um
 fe ar
it ch
 s que
 sh ip
 re g
 c ouch
 g un
 tow el
 v an
 near by
ught er
 m ir
 yell ed
 ash amed
 ba l
 power ful
 la w
 wa nd
 lar ge
 que st
 fl ag
 place s
 c ri
b ar
 j erry
he lp
 l amp
 po or
 w om
 gl ass
st op
 wom an
et h
n ess
or row
ic ked
ge st
 da ughter
 tom orrow
 car ried
r or
as er
 te le
 wra p
 he llo
 journ ey
 je ep
 ne igh
l o
 g as
 j im
 a f
y m
v ous
 tri es
a ger
 neigh b
 ign or
 j ill
 uni que
 we aring
ens ive
 exp ensive
 la zy
 b ur
 pe bble
 go es
 love s
ighte ned
itt er
 sc ar
 dan cing
 d ig
 we ird
 ant s
ug g
 bob by
 ch ase
 mir ror
 af ra
 afra id
 tom ato
 fr ightened
bar ra
barra ss
 e ager
 te st
i ff
 em barrass
 n er
 un k
 whis p
 prot ect
 go ld
 jo g
 st ood
 de st
 cl ay
 ner vous
 puzz le
 succe ss
 j am
n own
 w ip
 splas hed
 br idge
 p ay
 unk nown
 pol ite
 ca p
 g en
 ba ke
 dec or
 inc red
 m ill
 g igg
 creat ive
 squ are
 imp ress
 fe et
 le ad
er a
 re x
 so l
ut e
 incred ible
 paw s
 y og
 so ck
 o k
 pot ato
 p ass
 sandw ich
 k iss
 bubble s
 te eth
 sw an
 f ool
 use ful
 res pect
 clo ck
 m ary
 sh adow
 bor ing
 wh ale
 ste ak
 so ap
 stra w
 p ump
ber ry
 dis co
l ves
 sh ark
ow ed
 pen ny
 peace ful
 clos et
 mix ed
 te nt
 ma sk
 j a
 kno cked
 sp ace
 myster ious
 gen er
 sw ord
 fam ous
tom my
 be an
air s
 and y
c ream
r ated
 so ld
 answ er
  3
 fe ed
 sc o
 me asure
 r ug
 k icked
 would n
 an c
 anc ient
 sna cks
 bl ow
 dis g
 ste al
 rel ie
 mar ch
 corn er
 k is
 e scap
 cho col
 t er
d ad
 mu sh
 wa ke
 no isy
ot e
 sp read
 bran ches
 scar f
p id
orm ous
 pain ted
 grand pa
 stu pid
 mu ff
 de ad
 t ick
 sho e
 egg s
 r ough
 en ormous
 mel on
 fr ust
 ro ar
 bar n
 stu dy
 wag on
 mom s
 disg ust
 ba ld
 d ug
 li z
 pre se
u ce
 cr own
 ter ri
 c one
 chocol ate
 fool ish
ro be
 se ll
 r are
get able
 sc are
 ve getable
 b ill
 gener ous
 spe ed
o nd
 banan a
 disgust ing
 sal ad
 med ic
 underst ood
 medic ine
 mush room
ad o
 gr oup
ed ient
 cl ap
 st uff
in a
 t u
 her o
 b itter
 diff ic
 g oose
 frust rated
 perf orm
 diffic ult
p es
 bre ath
 sam my
ro y
 i nd
 th ick
 cover ed
 wh ich
 mark et
 small er
 tast ed
 co co
uit ar
 g uitar
 ob edient
 a unt
 m ummy
 or d
 t iger
 ch ar
 might y
mm er
 che ap
 h orn
 ha ng
 la b
 c ro
 d ull
g o
 dest roy
 bor ed
 as leep
l and
m b
 stand ing
 m ountain
 to ug
 m ot
in al
 ta ught
 har m
oom y
al k
it ten
tim my
ou ra
su al
u sual
 relie ved
 bec ome
 when ever
 terri ble
 join ed
 su it
 toug h
 un usual
 squ ash
al ous
 j ung
 cle ar
 je alous
 mo ving
at ter
 explor ing
 blo om
 event ually
 gra ce
 pump kin
 your self
 ad m
 jung le
 par rot
al s
to gether
ig inal
 kn ife
 b ul
 dr op
 disco ver
 m ic
c orn
 as king
 pri ze
as ses
a w
 ac orn
 spo iled
 bul b
 fin e
 pop corn
 f at
 or iginal
 nut s
 blo ck
 com b
 te mp
 thought ful
 che ss
 fo ld
a king
 hear s
 c op
 tw ist
 st ri
um e
 h ay
 too l
 v ase
 seed s
er ce
re en
 cl um
 jo lly
 fi erce
 draw ing
la x
 is land
g u
 re lax
 carrot s
 sn ee
 end ing
 pe pper
and y
 thank ful
 clum sy
 embarrass ed
in side
h a
 ear th
 sp ent
 know ing
 cl own
 trou bled
se lves
 stret ch
o lly
 sun flower
com fortable
 find ing
 bal ance
 fr own
 rec ord
s or
 un comfortable
 hat s
 a dd
  '
 che st
 lo se
irst y
 o ce
 fle x
 past a
 cat s
 advent ur
sor ry
 cro co
 exc iting
 oce an
 sho ot
 sc atter
il t
y al
 li fted
in ess
 flex ible
 st amp
 m itten
 se al
 cu sh
 jen ny
re ady
 tri ck
i f
op ard
 sh iver
d le
 adventur ous
im p
 wr ote
ang le
 hair y
 ex am
 ar row
 lo yal
 d epend
l ace
 bo dy
 pick s
 neck lace
 cra zy
 stu bb
 muff in
 tell s
 harm less
 b er
ce let
 ber ries
 bra celet
 stubb orn
 co st
 ho se
m e
t i
 com fortable
ide nt
 pe ar
 le opard
 beh ave
 del iver
z ed
 sear ched
 f is
x ious
am ond
ave n
 an xious
he t
 tur key
 di amond
 organ ized
 en gine
 f ra
het ti
 ind epend
ag hetti
 cray on
 mo v
 coll ect
 pr un
 re p
 j ug
 mail box
m olly
 rem ind
 play ful
l oo
 bu zz
 independ ent
 sc r
h ow
 th irsty
l ight
 pract iced
 em ily
 g h
 fra g
 en v
 p ir
 wor d
 sp aghetti
 cra ck
an ged
 fl ash
 t ied
 un lo
 gh ost
 en vel
 gl oomy
ant s
 ra ced
ill a
 bar ber
 your s
 craw l
 croco d
 crocod ile
 bath room
 pol ice
 ac c
 escap e
 whe at
 do lp
 de er
 pig e
h ip
 pas sed
 friends hip
 depend able
 frag ile
 ro of
 mot or
 be es
 r aven
  er
 us ing
i o
 need s
 celebr ate
 de af
 r at
 f ig
 st at
 do ve
 sto ve
sh ine
n ic
 sun shine
 att ic
 p ress
ar n
 bri ll
 boy s
 th u
 bo ard
g l
 pain ting
y ing
 ph ot
 expl ained
 temp le
c er
 y arn
 brill iant
 show s
 ch anged
 we al
 ma p
g round
 pic nic
 col our
 hum ble
the ir
g es
 tri cks
 lo g
 craw led
 ch oose
m ama
 envel ope
n el
 ignor ant
 mag n
 balloon s
 cheer ful
p et
i v
 ru ined
gl asses
 sc ale
 s end
 ser ious
 av oc
 pop ular
 fr ame
 h oop
 sun glasses
m et
e very
 ra ft
w ork
in ary
 count ed
 bat ter
 kn ee
 bot tom
 fo lder
 bu ilt
 wa ves
id dle
o se
 to ast
 un cle
 comp et
 delic ate
 p ants
 stone s
 spot ted
 hel met
 clean ing
 jelly fish
 tri angle
 sc reen
 sp ill
 sp ike
 kis sed
m ost
ig ator
ul u
 env ious
 sig hed
 sm oke
j ane
 care less
 st age
 m iddle
 stat ue
 liz ard
 all igator
 mis er
 miser able
 tr ump
 i m
 trump et
 loud er
 tun nel
the re
 har sh
 al most
 pige on
 magn et
 p ow
 fing er
 wa nder
 vegetable s
 ma ze
 impress ive
 nap kin
 av a
it her
of fe
 c offe
ia ble
 bor row
 sa us
se um
  ed
 ho pping
b ers
 bel t
 coffe e
 sa iled
 no sy
 sl ipped
 fig ure
 me ant
 gu ard
 po st
 an g
 mu seum
 b in
 g ar
 acc ident
 ju dge
 y et
 att ract
 com pl
 take n
 was hed
 happ iness
o b
 c ries
 mov ie
 g or
 neighb or
 hurt s
 rel iable
m um
 jack et
 kn ight
 fil thy
ct op
 attract ive
ber ries
 weal thy
 ord inary
 cush ion
 rad io
 c am
 o l
 sh ore
 m ild
 on es
 g em
 a ut
 t ank
 ta g
 belong ed
 box es
 for ward
 ca b
 walk s
ob ile
 z ipp
om obile
 aut omobile
 pe ach
 gor illa
 gi ving
 pour ed
 o ctop
 dolp hin
 prese nt
 cam era
 sh ade
 pers is
 lo cked
 shell s
 no d
 cab in
 p ip
 pu s
 answ ered
ll ip
 whisp ered
p ack
llip op
 boat s
 reg ular
 lo llipop
 draw er
 tim es
 f our
 des k
 no ds
 cre ate
 mo le
 we ek
 say ing
 compet it
 mu le
d om
 lo ad
 sail or
c les
 cup board
 tr unk
 del ight
 tra vel
om es
 g um
 sque e
 m op
 ch u
 shr imp
 lot ion
ke ep
 cl ub
 coco a
 chu bby
 wit ch
 j ake
 her b
e st
 gar age
 sn iff
ut h
 tw ig
 strong er
  ot
 li br
wh o
 retur ned
 inv ited
 success ful
 w ool
 le an
 house s
r on
 nice ly
 supp ort
 need le
ur b
 help less
 live ly
 mo der
 show ing
 ac ce
 zipp er
ic t
 octop us
 persis tent
 for k
 gr own
 fear ful
mb re
 dream s
 u mbre
 help s
 d ough
 al ert
 get s
 sh ine
 dist urb
 ima g
 val ue
ie f
 re pe
 sco ot
 p le
 sol ve
an ut
 rad ish
 moder n
 fr idge
 n ur
 l ow
 pe anut
ell a
 dec ide
 y aw
 l ulu
 coo ked
 li cked
 sleep ing
 gu ess
 bed room
ul i
 c ere
 cand le
 ang el
e et
 loud ly
 thu nder
 tw eet
 spl it
 creat ure
 miss ile
 boun ced
 ot ter
 l it
 qu ar
 s le
 t ire
 way s
 d ive
 tr uth
 h ipp
 ba se
 wis hes
p ed
 sor t
 lear ning
 c ity
 spe ak
tim e
 h ive
 hard er
 g ym
 m ay
 er aser
 umbre lla
 ad or
 f ather
sara h
m or
 rep air
 st ation
 sp end
y e
 he n
 so ar
c ut
 gu il
 ca uli
 or der
 jewel ry
 cere al
 des ig
 ch alk
 cher ries
bb er
 guil ty
 big gest
 flash light
 th ief
 v ine
 quar rel
 j et
b illy
 wheel s
 poin ting
at ient
 te as
 ca ct
 ador able
 s ink
 h omes
 f ountain
an ger
 a p
 pen gu
 sk ip
 imp atient
bo dy
 kn ot
 ol ive
 d ust
de st
 libr ary
 happen ing
 pow der
g en
 car pet
 cact us
 off ice
 for th
 o ak
 st aff
 l ying
 st ream
 sk ipped
 swe ater
 gir aff
 fis her
 nur se
ir it
w as
 gra pes
 sh ield
 hand le
 fl ute
 ha lf
bo bo
 ca se
 do lly
 hipp o
 c el
 comp ass
j ect
ph one
 com ple
 char ming
oura ge
p er
 feather s
es day
 thin king
 sp irit
 tri pped
im e
 val u
 count ing
is ted
 cauli flower
 sk in
 pet er
in ted
 tick et
 compass ion
 ele v
 straw berry
 know s
 l ed
 elev ator
 h unt
ach t
 them selves
 mar ry
 sle pt
 avoc ado
 wra pped
 sp un
was her
 compl ain
 tele phone
 y acht
 dish washer
 a er
 gi fted
 competit ive
 p ine
 am b
 exc ite
 r id
 shr ink
 i ron
 int ell
 intell ig
 qu it
p s
 wa ff
m ummy
 tear s
ct ure
 fle a
 d eter
 disapp o
 po le
 phot o
 m ug
 tow ers
 hair cut
 tr ay
 gather ed
 po em
 th ose
 sa uce
 hot el
 an ch
u c
 pir ate
ri ll
 w ire
at es
 gigg led
 decor ate
 quest ion
 to r
 tor n
 anch or
 cri cket
op l
 shap e
 valu able
 rest less
 to e
j im
 button s
 on ce
 deter m
 ear s
ul ance
 amb ulance
 aer opl
fl uffy
 cu dd
ter n
 compassion ate
 bu ll
 v ide
 slid es
a z
 bar rel
 tra il
  ow
 num bers
 na il
is ion
 ed ge
 spin ning
g ive
um ber
 str anger
 ja zz
 fisher man
 cel ery
 sh ut
 me al
 sal t
 ru b
 w ife
 pat tern
d el
 s ight
at s
 jim my
 we igh
 mean s
 p it
s qu
 retur n
 intellig ent
 s il
 bus hes
 ru bber
 laugh s
 disappo inted
 card board
 sur f
 banan as
sp ap
s ie
 mo del
 comp ut
 h ook
 unlo ck
?" .
 in k
 o il
 wall s
 sold ier
 p al
 ju icy
 e ither
 pet e
 new spap
he ad
 k im
keep er
sp it
 ho spit
 hospit al
ie w
 to by
 v iew
 l ime
 a dded
as k
 bird c
 pe e
it o
 pat ch
 f u
p ar
at ing
 sh ort
 c urt
m r
 dist ant
 sp ear
 co al
 safe ly
 sil ver
 ca ble
 birdc age
 bu ck
ar m
at ch
' d
 curt ain
 pretend ing
 tra p
 cri b
!" .
 spill ed
 mo squ
 en c
 mo dest
 pre p
 pain ter
 mosqu ito
 ri bb
ut es
 play ground
 light s
 dream ed
 bike s
 kind ness
 ch ain
 wip ed
 t ummy
 pal ace
 cost ume
ce n
 su per
 co b
 quest ions
 b ump
 t ask
 ro de
ur ing
 lab el
 yog urt
 pur se
 pa le
 co ins
 c omet
x y
 grace ful
 on ion
 motor cy
 succe ed
 min utes
 ha te
 sho cked
 gl ove
 aeropl ane
 sa f
 desig n
, ”
 p or
 coll ar
hin oc
 saus age
op ter
ic opter
 pro v
n ame
 comput er
hinoc er
 p un
ate ly
 it self
 st ack
 fall s
 hel icopter
 kno b
hinocer os
 sna p
 or name
 fl ame
 climb ing
fr iger
 mat t
ink y
 scoot er
friger ator
 re frigerator
st al
 cry stal
b u
 swing ing
uc et
 ta p
 h our
 a x
 basket ball
 step s
 r hinoceros
 fa ucet
 pa cked
 ro d
a ving
 go lf
 par ade
 m elt
 st um
 g ear
 li e
 base ball
 bird y
 le ash
ur ch
 e ye
 v end
 res c
 me adow
 newspap er
v ision
w ell
 ve il
st ri
 disapp eared
 band age
 make up
 dri ving
 pick ing
 brother s
 sp ell
 no vel
 m ath
rew ork
a ged
 bur n
ug ged
il ot
 fi rework
 l umber
 se par
 li cen
ac he
n ger
 sof a
 determ ined
 al arm
 ser ve
 sh amp
il able
 of ten
 z ig
 tele vision
ver se
 shamp oo
 ch urch
 pol ish
 licen se
 comple te
 in se
 vide o
 o stri
a pped
 med al
 cher ry
 cup s
 ava ilable
oph one
 ru bbed
 man aged
 mic r
 micr ophone
 ha ll
 ax e
 met al
 ho c
 tall er
 cool er
 spark ly
 draw ings
 k ay
 bag s
 pengu in
we b
 por ch
 disapp ear
 cob web
 hoc key
 sc rew
 p ilot
 star ed
ht ub
 di ary
 vend or
 hur ry
 bat htub
 war d
 s ke
 ward robe
it h
 gr owl
a ked
 ri ce
 book she
st airs
 bookshe lf
 organ ize
 batter y
 al ready
 ig loo
 gas ped
 min er
 roll ing
 me at
w a
 john ny
er c
ri can
g ra
wa it
 hur rican
pl ay
 ent h
 enth us
 vo l
 th read
 r ise
 sw ung
 p ipp
 pap ers
 stret ched
 expl ain
 it ch
 mag az
 past ry
 hunt er
 inse ct
 gra pe
o ld
 ro ot
 ex erc
a id
 un iver
 a pr
 bu ry
 k ang
 matt ress
se e
 see m
 fo g
 not ice
 ob ject
 b icy
n ce
sp ort
ist ol
 pas sport
 motorcy cle
 r ot
 la u
 win ter
 coo king
 hurrican e
 d ess
 o xy
 giraff e
 ar g
 dream ing
 must ache
 p istol
 real ised
 im pr
  x
 joke s
 sug gest
 re ward
 black board
omet er
 fl our
 zoom y
 net work
 wall et
 tr oph
 she et
 un pack
 f ought
 vol can
 be ep
on y
 cr ane
 hum an
 bee f
 bicy cle
 le e
 bl in
 buck le
 cho se
ian o
 fall ing
 po ke
rm ometer
l ter
 the rmometer
 d are
 ostri ch
en ny
c u
 be ss
 l aser
 call ing
 w ed
 sun set
 volcan o
 troph y
ac hes
 p iano
 ra ke
 be nt
 truck s
 c amp
b ra
ha ppy
 sweet ie
 p andy
 ne at
 att ach
 hour s
 dra in
 we ep
 v i
 st om
 sn e
 pract ice
 press ed
 she lter
ak y
 train s
 pack age
p oon
 min t
as ing
 hang ing
ang u
 l angu
 ha mmer
ur ed
 squirrel s
 teas poon
 frog s
 st able
 apr on
 mar ched
 fu el
 off ered
 bl ouse
 h ut
ar oo
 tra ck
 me mor
 discover ed
 enjoy ing
 read ing
 again st
 mess age
bo l
 ra g
 l end
 kang aroo
 yog a
 sk ull
ctor y
 sk irt
 fa ctory
 orname nt
 ear ly
z ag
 u r
n e
 tu be
 dis play
l ies
ym bol
 prun es
 magaz ine
 s ymbol
 pare nt
 pre vent
 hold s
 fing ers
 sho vel
 st airs
at ure
 n ation
 pin ch
 excite ment
 pee ked
 kn e
 cast les
 grow ing
 j unk
 bat he
 journ al
 t en
st ic
l ittle
 accident ally
 plan et
 bess ie
 s on
 foot ball
 mat ches
 dess ert
ia stic
 enthus iastic
 che ck
 o y
s ses
g ing
 per m
 c ell
 all owed
 cu be
 ha nger
 free z
let on
 su mmer
 po pped
 sh aking
 f aste
 happ ier
 open s
 ske leton
 the ater
 zoom ed
 f ive
 sad ly
 sw itch
 bu zzy
 bath robe
i um
 he dge
 c ord
 we ap
 tell ing
 pip e
i ence
 sl ipp
 rest ore
 dist ance
 ra z
 liste ning
 a head
 re verse
 raz or
  �
 faste st
n ey
in ation
 dis ag
in es
ion ary
ict ionary
 zig zag
 stum bled
 ribb on
c ase
 d ictionary
 adm ire
 fil m
f ast
 bri ck
her o
 al ive
 super hero
 pe ek
 door s
 stir red
 go al
 t ip
ag es
 stick ers
 to ile
 vi ol
 viol in
 help er
 surpr ises
 t ina
 sp oke
 tra sh
 ch asing
 lau nd
 does n
 laund ry
 str ugg
 jump s
 cir cles
 co pper
 exerc ise
 stop s
 p ony
 acce pt
 to oth
l id
ast ic
 su b
um b
ar ian
 blin ked
 miner al
 break fast
 poin t
 e llie
 respect ful
 waff le
 weap on
ie st
pl ace
 lion s
k i
 n ature
j ill
 freez er
s er
 ra il
 gra nt
 wis dom
 re fused
 langu age
 toile t
 fe st
 mar ble
 ve st
 play er
 monkey s
 light ning
 le aving
 fest iv
 g rill
 so ph
 be et
 festiv al
 oxy gen
re nder
 wh ip
 boun cy
 o ats
 le ak
 ho lid
b ook
 st ad
 fire place
 e lly
y ear
 stad ium
 n avy
 holid ay
ff ic
d id
 b erry
 cabin et
 mr s
 tra ffic
 ple ased
 sniff ed
 lem ons
 snee ze
 search ing
 tw ir
p ort
 air port
ht ray
 ru les
 c ur
 m en
 me owed
 w ig
 cow s
ic hes
 forg ave
 sandw iches
 tight ly
 law n
 ro ared
 as htray
 fav our
 kno ck
 com fort
w ards
 bet ty
 sl ap
 car ing
 any way
ch an
 me chan
 no body
 stick er
 boot s
 separ ate
 ima gine
 se nt
 stom ach
 favour ite
 un ite
 ag ree
 sl ip
 pa ir
im ney
 find s
 meet ing
 pl astic
 window s
 ch imney
a ced
 ob ser
 tomato es
 mechan ic
 pap a
 beet le
 bark ing
 blue berry
 en er
 res ist
 grab s
 mix er
 sand y
am ber
em ent
 bre at
 letter s
 belong s
 bill board
 po ked
 min ute
 ve h
 music ian
 veh ic
 sub way
 sp ort
 c ards
 class room
ma nd
 hole s
l u
d ed
 mistake s
 soph ie
 fl ood
 sur render
 inv ite
 kay ak
 pipp in
 tun a
 rem ove
n ight
 laug ht
 laught er
 oy ster
 y ield
 note book
 lean ed
 nam es
 w ine
 impr ove
 count ry
 mitten s
 al ice
l au
 cart oon
x i
 hand ed
 pudd les
 rem ain
c ast
 go d
 resc ue
 war ned
 spo il
 book case
 glow ing
 c ourage
 swam p
 sand cast
 su dden
 law y
 re ce
 problem s
jim my
 ch amber
 ab ove
 wip e
 war n
ch air
gra nd
 s ize
 b ree
 thank s
 proud ly
 dan cer
 loo p
jo e
 slipp ery
 pull s
le nd
 straw berries
 for t
   
in arian
eter inarian
is on
ig i
v ice
 pus hes
 ign ore
 keep ing
 mail man
 butterf lies
 repe at
 sand box
 so il
 frown ed
 kne el
 cl iff
 tra de
 pa ges
 l id
 ce iling
 pan ic
 kind s
 carry ing
 feel ings
 arm chair
 v eterinarian
oc col
 wig gly
occol i
 br occoli
un ch
 p age
 te ase
 bright ly
 plan es
f orm
 ar t
 inc re
d a
ro d
 po lly
 stri p
 squee ze
 st air
 he at
 excited ly
 belie ved
 prov ide
 del ay
 p ed
or y
 ener gy
 int rod
 was te
 tool s
 free ze
 some where
 shake s
e bra
 ca lend
 pray ed
n esday
 mic ro
 micro sc
 microsc ope
 pa ul
 calend ar
 reg ret
 g a
 e xt
 z ebra
 lawy er
 old er
 sound ed
 li ves
 ad vice
 me as
ra nt
 remind ed
b l
 sa ving
ol og
 ap olog
 sandcast le
im ed
g ie
 l uck
y our
 myster y
 cho ice
 can e
 inv it
 any where
 ra ise
 fl ies
 pri ce
 chair s
 ste am
 f re
 vehic le
 hun g
 ru shed
 suggest ed
 room s
 let ting
 break s
 chicken s
 happen s
 sh one
 shout s
e er
 soft ly
 ca pt
 star ts
 colour ful
 cross ed
ation s
 imag ined
 de ar
 inc lu
 tre m
ne xt
 repl ace
 ta xi
 p itch
 app lau
 smell s
 g igi
all ey
 w igg
 eat en
 rec og
 recog n
 rest au
 restau rant
ore s
 f ile
 re ind
 blow ing
 rain ed
 st itch
 ran ch
 g ain
 reind eer
m ary
or ge
 cla w
 t ub
 pu p
m ark
 rid ing
 a w
 v alley
 dis hes
 delight ed
 end ed
b ella
 e qu
 ext ra
l ie
ed y
 wed nesday
y uck
 snee zed
 chew ed
 torn ado
y ay
 sp ade
 re ve
 boun cing
 bark s
 prep are
ut or
 po ison
 blue berries
 ma ss
ec ted
 fre sh
vel v
 arg ue
 t utor
 head s
 hop ing
da isy
 set tle
 my self
w ill
 car l
velv et
 yaw n
 ch ance
 prun e
 qu iz
 g ro
 sco ld
 b inky
 wr iting
 v ac
 p and
 capt ain
 ba king
 ent er
 op era
s ur
 shr ugged
 fr eddy
 vac ation
ip ment
 me nt
 sk ill
 even ing
 miss ing
 shiver ing
 dis cu
 gigg le
 ch ores
 bur ned
 perf ume
 su ff
 flo at
 j ess
 we ather
 prin ts
 b end
 discu ss
  velvet
 equ ipment
 con tent
 se as
in ce
as is
 pus hing
 reve al
 after no
u cture
 fix ing
 str ucture
er o
 o asis
 ment ion
 st y
 bump ed
 afterno on
 spot s
 bel ow
 pl aced
 li lly
 throw s
 throw ing
 hill s
 puzz les
 yaw ned
 so cks
he art
 trust ed
 ma ll
 bean s
 coat s
 s ir
 par ts
 by e
 tra cks
 p aste
 ins isted
 cand les
in king
s ity
 gre edy
 show er
bu ddy
 v room
" ,
 stick y
 car ed
 sweet heart
 bright er
 follow ing
m end
e f
 paste l
 se w
 prin ted
 z ero
 should er
 s igh
 impress ed
w el
 pun ish
 teach ing
wel come
 un happy
om mend
 ex pect
 pand a
 claw s
 rec ommend
 ste el
 l ugg
be fore
 ho ppy
 snow y
 cu b
 ra cing
 lugg age
sur pr
 exp er
 uni form
 cla pping
 be g
loo king
 deep er
 sn ugg
 to ur
d ing
an a
 spray ed
 we ight
 spark led
 eas ily
l is
dad dy
w o
j enny
b ec
 y ucky
 sc ore
 trem ble
 splas hing
 re ef
 lemon ade
 sque aky
 lear nt
 chee k
 che cked
 ignor ed
 whisp er
 m ike
 univer sity
 follow s
 l u
 destroy ed
 scatter ed
 worm s
 sell ing
 o h
ang es
ri age
 perm it
 bu ried
 fur n
co nd
 se cond
 van ished
it ure
 su sie
 furn iture
 up stairs
h ood
 stre ng
m imi
ec ting
ic er
 sp r
 fr o
 jog ged
 bet we
 speed y
 sor ting
 ent ered
 c ree
 de mand
 betwe en
 ja il
 whist led
 bad ly
 cree k
he st
surpr ise
 ru sh
la imed
 poin ts
 bri cks
 count er
 hop es
 supp ly
 pa id
g red
 sty le
o ved
gred ient
 stu d
 mass age
 frog gy
 streng th
 le cture
gg ing
 bear s
an n
 w re
 in gredient
 qu ite
 th umb
id es
 cut ting
 exc laimed
 y e
ar i
 seat s
 hurt ing
 breat he
 scr atch
 r ow
iz es
 neighb our
 pet als
 b other
r ight
 climb s
 p ort
om ed
 put ting
 rain ing
 mar riage
 � �
 t ug
the se
al ice
 cake s
 invit ation
 shop keeper
 men u
em ma
 h on
 all ow
 bl ink
le x
 tw ink
m en
 forgot ten
 work s
grand ma
bec ause
 wa ving
 lo la
 f urt
 ag re
 adm ired
 d uring
 pig s
 furt her
 explor ed
 prin ter
 he el
re sses
 ingredient s
 sna il
 wag s
 jo gging
 star ting
 bal an
b oo
 a lex
 fin n
 s ince
 wre ck
 shin ed
 was hing
 w ink
 fall en
 obser ve
 introd uce
 pl ates
 eager ly
 enc oura
 drop s
 differe nce
eci ally
 sail ing
er ation
 bl ood
 ap art
 sc oop
 so c
 r ay
 fold ed
 e sp
 esp ecially
 mag gie
at ched
 ac ted
 stri ke
 soc cer
 flo ated
 wel com
u ct
 is n
 fl apped
 hor ses
 move s
 exam ine
 plant ed
 beaut y
 wor th
 stud ied
 war ning
 hig hest
 to ng
 t illy
 qu ack
 incre ase
 play s
 wander ed
 in st
 bone s
 n ana
 s i
 r ul
 water ed
 steal ing
 dress ed
que st
 pear l
 prese nts
 fam il
 ur ge
 re aches
i ki
 elephant s
 set t
 k iki
 give n
 ch ick
 shout ing
qu ake
. .
 tu esday
 king dom
fort un
 li zzy
 br ings
 quiet ly
 scold ed
 sor ts
med i
b or
 sol ved
 sl apped
 so ak
every one
 sna pped
medi ately
 tw isted
 har bor
 land s
 earth quake
 gift s
 b oo
 ba k
re at
 fl ap
 char lie
a h
 sit s
 im mediately
wo of
 mis ter
 re quest
 tong ue
 m illy
 or anges
 li p
 cur led
omed ay
 h i
 hear ts
 cra sh
 d ave
 b ang
 snow ball
 had n
le o
 exper ience
 k ate
 kis ses
 we st
 slid ing
 ru by
 op eration
 memor y
 spark le
 plan ned
ster day
 we ig
 com f
 ima ge
 tra ve
 ta le
fortun ately
 s omeday
 t ide
 rul er
au sed
 pret t
 p aused
 att ached
 stuff ed
 s izes
 squee zed
 field s
 wor se
 fin ny
 li cks
y s
 skill s
 pull ing
 ca pe
 suff er
 catch ing
 man age
 colour s
 s ile
' ve
 sh ot
p ted
 pe aches
 acce pted
 ab by
 sor ted
 imag ination
tent ion
r ise
 re lease
 app ear
 enc ourage
at ie
 ide as
re ct
 welcom ed
 to to
 see ing
to day
 meas ured
 blanket s
w ith
 zoo keeper
 twir led
h ouse
 to night
 bo p
 d ried
 new s
 at tention
 m ice
nd ay
 close ly
 sett led
 sun rise
 whist ling
e orge
 call s
 peanut s
 wag ging
 mill ie
h y
 g eorge
 celebr ated
 seas on
 growl ed
 gl o
st ers
 tu cked
 re f
 rabbit s
m er
 l ou
 le ather
 mel ted
 stu de
 taste s
 fire man
 our s
 win ning
c ery
 recogn ize
 rece ive
 memor ies
 d resses
 ye sterday
 gro cery
 b le
 disag reed
et ch
re my
 p alm
 rem ained
up s
 saf ari
 down stairs
 mar ried
bl ue
 z ara
es sed
o e
 cl ara
 snugg led
 glo ves
 she d
 wa lly
 so aked
 z ipped
 acorn s
 to es
 pun ished
 wood en
 ste ve
or ed
 to re
 em er
 su nday
fr ed
 eas ier
 stir ring
ber t
et y
w alk
is ing
 side walk
 st ro
 li ps
ind y
 understand ing
s te
 sur round
 univer se
 potato es
 ba ked
 encoura ged
 ran g
 collect ion
 bre aking
 back pack
 creature s
 hit s
 dan ny
 stra ight
hy th
hyth m
 every day
 ga zed
p eter
 pir ates
 kick ing
 flo ating
w ould
 hen ry
mb ling
 off er
 pebble s
 craw ling
 r hythm
 sm ith
 lun g
 should n
 ring ing
 ra ised
 gr in
 al right
 tre mbling
 ped al
 su zy
 ca u
 applau d
 cudd les
 kit es
 ba b
 mus cles
 inclu de
 relax ed
 land scap
 bab ies
 wait s
d og
 sho pping
lis a
 her s
 firework s
l er
 br us
 sp it
 fl at
ipp ing
 p ad
 bit es
 unlo cked
nd y
 wat ches
 ble ed
 ro bby
 ma ndy
 un ic
 unic orn
 fr ost
 we b
 famil ies
 bra in
or ted
igg ing
 dr inking
s it
 app ro
 fire f
 d ared
 pet ted
 saf ety
 n one
 ro sie
 study ing
 d igging
 s ip
 mouth s
 shadow s
 keep s
 girl s
 chew ing
 rest ing
 m oo
 ex it
 j ames
 vis ited
 mat ched
xt ure
 bree ze
 inst r
 op in
mom o
 kneel ed
all en
 ch allen
 sne ak
re c
k ins
s ing
 tall est
 cartoon s
 bed s
 weig hed
 la id
 ord ered
 saus ages
 mar ia
 treasure s
 mu ddy
 ser ved
 amaz ement
 v et
 na pping
 pile s
 disag ree
 play time
 l ined
 under ground
c at
 cr unch
 weep ing
um es
r r
ag le
 sile nce
 in f
 cost umes
 repe ated
!" ,
 win ner
 van ish
 root s
 set ting
 spoon s
 now here
 landscap e
t r
 let s
! '
 wr it
c oon
 road s
 mix ing
b ird
is hing
 sign s
 g ust
 app rec
 e agle
p o
 apprec i
an y
b ug
 li ck
john ny
 to ny
 decor ations
 import ance
s oph
i en
 perfect ly
 ur ged
 dust y
 t ed
 sister s
 happ iest
y um
 emer gen
. '
b a
thank s
r s
 pet s
bo bby
 decor ated
 voice s
j am
c l
iz ing
 pin ched
 pattern s
 poem s
 prep ared
ang ers
 str angers
ash ion
 f ashion
 cle aring
 agre ement
 mention ed
 knight s
 har ry
 d ot
m ar
 no on
 gu essed
 draw s
 wa ist
ip s
 res ult
 p ra
 inf ant
a ct
a cked
 crunch y
 be ard
 s ix
 mark s
 how ever
i ers
sam my
 s im
 scr u
 escap ed
a ved
 waff les
 kn own
ir ts
 bo om
 adm ir
 rock y
ch ie
 spr ink
 moment s
m other
 fr ank
 th rill
 our selves
 match ing
er n
 tur ning
 pe el
ss ible
 hur ried
em ily
 log s
 cra shed
t ory
 his tory
mor al
 spend ing
 fis hing
z en
 grin ned
 fro zen
 sold iers
soph ie
 disturb ed
 ri pped
 apolog ized
 ex pected
 cudd led
 go als
 brave ly
j en
 ru in
 bow ed
it ies
 beh aved
 f etch
 l imes
 pillow s
 br id
 di rect
h o
ant ly
 dad s
 strugg le
i ved
 jo ey
 sk ipping
good bye
 kn elt
e ath
 ben eath
 emergen cy
ve st
 he sit
 coll ecting
co b
is hes
 e ast
 l ines
 me ow
 phot os
 g ained
s a
 re fu
be y
bb led
 beg ged
 tra pped
 so ared
 warm th
 sto le
 sl ice
 te xture
 bur ning
 rest ed
 loo se
 crab s
 be at
w atch
 drink s
 build ings
 coll ected
 brid ges
 it em
 jo sh
 wonder ing
 challen ge
 re sp
 dragon s
 so re
 p ies
om as
 answ ers
 sc aring
 th reat
 wonder s
 stamp s
 sim ple
 kind ly
 scream s
 appro ached
d ucky
 li ed
a les
 opin ion
 ag o
 pup il
te st
 t it
 pra ised
 teas ing
 scr atched
m iss
l ier
 wigg le
 keep er
 pink y
 k atie
 lady bug
 bru shed
 neighbor hood
 olive s
 twig s
 z oe
 their s
 jo king
 comf y
me ow
 spark ling
 scru bbed
u d
u ry
 gather ing
 gold en
ic a
a il
re ally
 cat ty
 cub es
 stretch ing
m are
e vent
 muff ins
 in vest
 cop y
 snake s
 a we
 invest ig
 teac hes
 wind y
 br oom
 remem bers
 ped als
ut ter
 ga ze
 grant ed
 spark y
 e ff
event ually
 gre y
 herb s
 ro pes
 lo ving
z ing
ben ny
 sl im
 night mare
 st ing
a way
 da v
 f ed
 str ings
 should ers
 be amed
 head ed
 ro aring
 thrill ed
 brus hes
 march ing
s andy
 investig ate
 pencil s
 glow ed
 tw in
 i zzy
 sne aked
 balan cing
 hen ny
 wo of
 off icer
 sho ck
 lead er
 avoc ad
 avocad os
 che f
 eat s
 his sed
c he
 cre ated
 to dd
 trip s
 act iv
ue st
 record ed
 rece ived
 al ien
po ppy
 part ies
 arg ued
 g uest
 hard ly
 w id
 air pl
 zoom ing
 writ es
 slim y
 melt ing
 do do
o sed
 tit i
 heal ed
 sm ar
 trave led
 ann ie
 rad ishes
 rem ote
 marble s
 pot s
 wear s
 dec ides
 pray ing
 c indy
an ny
 supp osed
 jewel s
 dest ination
 mountain s
 n icer
 are a
 rem oved
 scream ing
 t ugged
ul ie
v room
 sweet ies
 stick ing
 chirp ed
 eff ort
 fl utter
 in ch
w he
 you th
pp ers
 yell ing
 far away
 ma ster
x ury
 � �
 ste ep
 c row
sh h
 stude nts
d ie
 fi f
 cheer ing
 d ar
b ri
 bucket s
 deliver ed
j ames
 pol ished
ic ing
 mon sters
 where ver
 o at
o llie
 c ough
 stri pes
os ity
 real ize
lo e
” .
 h itting
 clap s
 own ed
sh ip
 tri cked
tr ue
 reveal ed
 ha ted
 sit u
 sl ed
 des er
 pr op
 saf er
 bak ery
i ving
iss ion
 cut s
 man e
 ja cob
 ear lier
 seem s
 touch ing
 par ked
 stay ing
 c rew
 tale nt
 feed ing
 lu xury
 prov ided
 chick y
 tick le
 complain ing
 sne aky
 contin ue
 meas uring
 perm ission
 secret s
 open ing
 sc ur
 f as
 fear s
iz zy
ag ull
h ave
 gl itter
 be side
 giraff es
  1
 fa ced
 se agull
re x
 tail s
 dinosaur s
 shoot ing
 bleed ing
is ty
 act ing
 disco very
 tw isty
 cand ies
 horn s
 ru le
 swe at
 pan s
es ome
m ies
 hero es
 dark er
mm m
' .
 paint s
 act ually
 admir ing
 magnet s
 act ions
 dav id
 aw esome
 strugg led
 t i
 ba re
c us
bb ing
c ar
 prop er
 re le
ell e
n ie
ang ing
 refu se
st ay
 tim er
 on wards
 rest ored
 val ued
 din o
 bed time
 wed ding
 hon k
 neighb ors
 cre ation
 prett iest
 twink le
 tun e
 gl asses
 di ed
qu id
 patient ly
 w iz
 helmet s
 week s
 aw ake
 strugg ling
 food s
 spray ing
 n i
 flag s
un a
 li quid
 comp any
 surround ed
 was ted
 space ship
d ies
 shr ug
 ro ver
 con test
p ie
sh r
we et
ck y
 passport s
 ch uck
b ig
 team work
 to ss
 want ing
or a
n ers
 neighbour hood
 cont ain
ge orge
 recogn ized
 bloom ed
 cat ches
 nail s
 sight s
t iny
 pol ishing
 appreci ate
 pat ience
 s ings
 paint ings
 load ed
 frost ing
 scoot ers
wh is
ad s
 m es
 cre pt
 succeed ed
 pe ppers
 po king
 pengu ins
 st are
a pping
b and
re m
 sa nt
 sant a
 v ict
z oom
u h
 work er
 si ren
 qu acked
 pay ing
 pr ide
 r ust
 a chie
f o
 pro ject
 r um
com pl
sc reen
le e
 ribb ons
 lu ke
 tra ded
 di ving
 star fish
 demand ed
 scatter ing
 bring ing
 organ izing
mr s
 visit ing
whis kers
em ber
pet e
 be ads
 cush ions
 se ven
 l enny
d uring
 e ight
 blow s
 thu d
 celebr ation
 splas hes
rem ember
 gu ys
 resc ued
 airpl ane
 jess ie
 all y
 bloom ing
 sad ness
 fif i
 balan ced
 rel uct
 c al
 o bey
 fas c
 scoop ed
en se
 cone s
 fl av
pa ul
 instr uct
c ake
 instruct ions
.. ."
 pear s
om ing
 fasc in
u es
 sigh s
 con f
 spark les
 pre c
 what ever
 ac compl
n k
l una
 prot ecting
 bak er
 reluct antly
 sc ales
u al
 con fl
 pur red
z oomy
 grand mother
 unt ie
 bird ie
be ep
j ake
 ho pper
 prot ected
 ins ist
 miss ion
b ad
 explore rs
 dri ves
 un fortunately
 p ause
 remind er
 good night
f irst
 go go
t her
 fro ze
ul ts
 spell s
 applau ded
 ref re
z ie
 back ward
ach oo
 tra ctor
 home work
ad ed
 learn s
 wiz ard
 lay ing
a ster
 confl ict
 us ual
 apolog ize
 exam ined
 rocket s
en a
 rid es
 win s
 figure s
 smar ter
 ch loe
 small est
 lead ing
 pastel s
 drag ged
 di pped
 cau se
 pipp a
 jen na
 mus cle
 prett ier
 jess ica
 gun s
 start led
 w ound
 bec oming
 vict ory
 smile y
 cl ick
s omet
 rele ased
 spike s
 planet s
 shiver ed
bb ly
 ch anging
 b umpy
 todd ler
 firef ight
 help ers
 str uck
 bug gy
i ar
 spid ers
act ly
 forg iving
 pur r
m ill
 mar ie
 de al
 any time
 th omas
 cra cked
j erry
 bare ly
 record ing
it s
av i
 warn ings
grand pa
 c ous
 inv iting
 prec ious
 bowl s
 d ie
 ro bert
 sprink les
 cover s
ted dy
 bet sy
 lis t
s illy
 hi ppy
 ex actly
 me g
 un ited
ch ar
 buzz ing
 an no
th ough
mill ie
 twir l
 sh irts
jam as
 sun light
 deliver ing
 hug ging
 beh avi
oop s
 rep ly
as hed
r u
or ds
 r ings
 st ern
 b ank
 un f
 pack ing
  vent
 roll ie
 fire men
le ct
fl ow
  ouch
whe e
 ro bo
 rainbow s
 nap s
 situ ation
 wrap s
 ticket s
 prince sses
 vill ag
 got ten
 ar gu
 who se
 jo ked
 v ines
 argu ing
 sport s
 snowball s
 mis ses
 some body
 send ing
 d ara
 separ ated
 arri ve
 pe ered
 j illy
 co coon
 cudd le
 tr u
t weet
 ne ither
 quarrel ing
 ch ips
 activ ities
 wigg led
 villag ers
 curi osity
 mask s
 po ssible
 pe as
un fortunately
 compl ained
 fa ult
 p ins
 pa jamas
 fish y
 introd u
f ied
 were n
u sh
n ies
 w oo
op s
b el
m illy
 com m
ess ie
 s ense
s hing
 group s
 kno cks
 far ther
 comple ted
 rock ing
 block ing
 beh aving
 scar ves
 fore head
 ho ot
 choice s
 pig gy
 yell s
 sn atched
h old
 bar ry
 ma iled
 per ched
 path s
mand y
 bit ing
 ple nt
 pow ers
bu zz
 sp ins
 wid ened
 us ually
 incre ased
 squ ish
 request ed
 be lly
 bra nd
 fox y
 impr oved
 fascin ated
 th ro
 l ena
 discover ing
 p out
 trick y
d ave
bri c
 superhero es
 chirp ing
 g ri
l illy
 growl ing
an ie
 item s
 proper ly
 gre et
 cau sed
 y um
 te ased
 trave ll
 bounce s
 pocket s
 a ud
 kick s
 cudd ly
 plent y
 bell s
 ref lect
 tru ly
ir m
 con n
 t ara
 ra c
 itch y
 mot ion
h ar
 f irm
ell ie
 fa bric
um ent
 s ides
 rum ble
 hon ked
 shr inking
 f ut
 swim s
cu se
 curtain s
qu ack
 tunnel s
gu ess
 so bbed
 gigg ling
 di ved
 nest s
gg ie
 wor ries
 ho lly
 fut ure
ye ah
 listen s
 so aring
 n ine
somet imes
 direct ion
 thro at
 hand ful
lis ten
 reward ed
 hall way
 chase s
 ima ges
 reach ing
 prom ises
se ek
 pop s
 obser ved
 fold ing
 police man
 brown ie
 pol ar
 stand s
in ing
char lie
ex cuse
 poin ty
in t
 every body
 buzz ed
v in
 r is
 sw it
k er
 creat ing
 ch op
hen ry
 w ow
 can s
 nap kins
 unt ied
 g ina
 let t
 mov ies
 lett uce
s unny
h ins
= =
 grow s
y ond
� �
 g ross
 growl s
 star ing
 pot ion
 firef ly
 stay s
 task s
 sa nk
id o
 h us
at ches
 suff ered
m ine
 hus band
 no ses
 ro ses
 scur ried
 pretend s
ma ggie
 interest ed
 lean ing
 celebr ating
 si bl
ch irp
 deser ve
 sibl ings
ong e
ang led
 whisp ers
cake s
j a
 bracelet s
 sp onge
 dolp hins
 sw all
 sees aw
 corn ers
 agre es
 van illa
 be yond
 pee king
 complete ly
 t um
 d ent
k y
 base ment
 e v
 re pa
 o lly
ed s
 ch oo
ust om
 bo dies
 sw oop
 a st
 c ent
as on
t ake
 cont ro
 c ustom
 dro pping
 av o
a bella
 j ulie
b unny
 pump kins
su sie
 sing er
 guest s
 human s
chirp y
 spread ing
 la p
 lo sing
dog gy
 squish y
 fa ct
 ran ger
lo la
 m erry
 wis hing
 key s
 vent ured
 sof ia
 back wards
 square s
 wo bbly
th ose
ste ps
r un
 after wards
 te aring
 repa ired
g reat
 conf ident
 pat ted
bo ys
 sweet s
 v owed
 repl aced
 bra very
b ie
 pract icing
 v iv
 read s
 ent r
flow ers
 hor sy
 spe aking
 tick led
y ummy
 batter ies
 sail s
shr ink
 supp lies
oun ce
p ite
 p am
joy ed
 foot steps
 accompl ish
l ina
 s y
 dot s
 doll ar
? '
 sl am
 t y
f ree
 part ic
l ike
 surf ace
 light er
 roll s
 fl ames
 spr ang
 cal med
 n ick
 pad dle
 ent ire
sp ike
 luck ily
 su zie
 over joyed
 as ide
 wire s
 jo jo
 mom mies
 big gie
 work ers
 gri p
 comf orted
 count s
 firefight ers
 use s
 al though
 competit ion
 ste ady
 sof ter
 pour ing
 st em
 play ers
 bat hing
 ex ha
 stro ked
 scr atches
 entr ance
 snow men
 decor ating
s na
 fill ing
 out do
 dent ist
 chef s
 miner als
l ulu
 remember ing
 ri pe
 rot ting
f ather
ru by
 un pa
 twink ling
 refre shed
one s
 p ec
 arrow s
 r uff
 avo id
j ump
re y
 ri p
an es
or der
s ome
 stude nt
f ine
 pad d
 mar ked
 necklace s
 reflect ion
 short s
 po ster
?" ,
p ipp
b et
ay e
 plan ning
 st ain
gg y
e ven
m ay
 kne es
p ut
 wander ing
 unpa cked
 sat is
 exha ust
 surf ing
bble s
 sig ned
 grand father
 pray er
 lollipop s
 sing le
ro ar
 rec order
 wait er
 tweet ie
be ar
ste ve
 supp orted
 exhaust ed
 close s
 t angled
 relie f
led ge
 towel s
 to ot
fo llow
 sa le
 le ast
 fl ip
 ann e
 hid er
 know ledge
ke s
 past ries
 burn s
 rac coon
 m ood
 cheek s
ig ail
qu ence
 beg in
 inclu ded
 perform ed
l uck
k atie
 outdo ors
 chuck led
 drum s
 shovel s
 strong est
 pass ing
 fl apping
 not es
 seek er
 st ella
ol ine
l izzy
 r ising
 des ert
br ush
 tou ches
luck ily
 z ee
al ph
 t is
 ti ppy
a ut
 st ool
 el bow
 ch at
 lick ing
 ab igail
do lly
 je ff
 water ing
 stum ble
 ste er
 th ird
 ha m
 flav or
amp oline
ann ie
se quence
 tr ampoline
ile s
 o pp
 con sequence
 win ked
f ly
 contro l
 b unch
 bri an
x ie
 resp ons
 she lves
 g az
 be am
 c or
s se
 he av
z es
 n u
re verse
 star ry
 kitten s
 bl own
 viv i
 snee zing
 mushroom s
 lend ing
 surround ings
 des pite
 ship s
 st ew
y ed
 i cing
 bath s
 introdu ced
 dan c
 cous in
 backpack s
is ions
b ang
 orname nts
 hesit ated
 c ot
 add ing
 jam ie
 f ido
 j anie
 swoop ed
 turtle s
 dec isions
 join ing
 load ing
 th orn
 clown s
 rust y
 sque aked
ich a
 pray ers
ro se
i am
icha el
 whist les
 twir ling
o ssible
 bar s
 consequence s
 ca ut
 imp ossible
 fit s
 achie ve
 dark ness
 table s
 mind ed
f all
 instr ument
m ike
un e
 mach ines
 danc ers
 sw ords
 rain s
p enny
w ise
 bell e
 partic ular
 1 0
 zig gy
har ry
 j ones
le y
 s ce
 ro cked
 a ff
 sew ed
ce s
 be th
 a imed
 dar ling
 to aster
d anny
ur ry
 sof ty
 fair ies
 le ap
 sp at
 end s
th s
 wip es
 kay lee
 matter s
 nut ty
 direct ions
 li am
 cur ly
 tale nts
 sk irts
 test ed
 cr umb
 slam med
 wake s
 ma ker
 wigg les
 din a
 rob in
 fork s
 loo ps
 angel s
 determ ination
gra ce
 bump s
 al oud
 sal ty
 swim mer
 go bbled
 slow ed
 ro bber
 heal th
 regret ted
 m am
 heav ier
 under ne
 wr ist
 ne are
 tight er
 gu ide
ba by
 head ing
 forget s
 ru dy
 g ee
 ghost s
 underne ath
 b un
dd ing
u nder
 fe ver
 st ung
 sew ing
 gee se
 sk unk
 car ts
 doctor s
 no dding
 honest y
 sun screen
f ound
 snugg les
 jacket s
 f aye
u el
 li es
b ly
the st
c ie
 nu zz
 jen nie
ale x
 ba a
 twist ing
 tip to
 your selves
ter s
id s
e en
 grace fully
 frost y
 spark s
 u nd
 er ase
 am ong
 sh all
 g oo
 pri ck
 frown ing
 don key
 mes mer
 caut ious
s l
 jack y
 swit ched
.. .
 un sure
 fle as
 pec ked
 custom er
 paint brush
 sweat y
 warm er
s ad
 fe ast
 prin ting
b ounce
 bad ge
 row s
 anno yed
 insect s
 did i
 far thest
 gr anny
 cobweb s
ep t
 frown s
 lo ses
 country side
i el
 sw ept
 t ig
 crumb s
 comb ed
 object s
 ad am
- -
 doll house
 yield ed
 ang ri
 lou dest
k im
 sol ut
 hope ful
 su ki
oo sh
 ast ron
 hid es
 rub s
 l ina
 astron aut
e ed
ho pper
 knock ing
 tis sue
 gl ued
 ple aded
 j on
 out f
 model s
 perform ing
 m unch
f or
 sad ie
 d en
 j ay
sna p
 sel f
 t uck
.' "
 act ive
 d am
 ris k
id ing
s on
 m ater
 slipp ing
 ruin ing
ll en
 stro ll
 mag pie
ch oo
 sn uck
io let
 vide os
 breat hed
 ex ce
 trust ing
 ba cked
ind r
 dragon fly
 ra indr
 ha llow
 master pie
le na
 an ger
 plant ing
 buy ing
 rain y
 me gan
 r ather
year s
 hallow een
 imag ining
 chew y
 ac he
cl ara
 ad ults
 per cy
 bun nies
 t am
 visit ors
an ed
 e ll
 squee zing
 oy sters
 ha lves
 as hes
 sh own
u cked
g ina
 fan s
 lead s
 sol ving
bu zzy
 ball y
 masterpie ce
 dam age
umb ling
 mark ers
 ag e
 t ipped
 raindr ops
 respons ible
 dave y
nd a
 prevent ed
z ip
 pu ff
w ra
 re ason
are n
 ch ara
 fl ight
 ignor ing
 ind eed
 sc u
 join s
 ch a
 ca sh
 pe ep
 scr ub
 tig ers
lp ture
 desig ned
 talent ed
 gaz ing
 remind s
ure n
pipp in
 cream s
 s way
 curious ly
 automobile s
 sl ither
b elle
c c
 re ver
 slow er
 tree house
bet ty
 chara c
 do d
 mom ma
 zoom s
 o cc
ir l
 prick ly
 inclu ding
m el
 gu lp
 woo lly
 s ens
 pl ain
w oo
ad es
 sc ra
 stuff ing
 mater i
 spit s
r up
 blin king
 scu lpture
b ir
p at
 aud ience
su zy
av id
 gra cie
 duck ling
 fl ipped
 firm ly
 remind ing
 talk s
 wound s
 padd led
 pl ucked
am il
 f reed
 brus hing
h urry
 tri xie
 cir cus
 sto pping
 gro cer
os ite
 rail s
 who ever
 bu ses
 color ed
 surf board
 pinch ing
al ways
 solut ion
 accomplish ment
ja zz
p andy
 travell ed
 over come
j ulie
 sour ce
 lift ing
 weal th
 satis fied
 twist s
 ch amp
 stole n
!” .
 pre sses
 ru bbing
it u
 ol iver
 opp osite
 tast ing
 neare st
th a
 ev il
 so aking
 t ia
 ind y
c indy
as hes
 br un
 twink led
 brun o
k ate
amil iar
 forget ting
ump h
 wip ing
 flutter ed
 was ting
end y
 toss ed
 champ ion
iss a
 caterpillar s
 journey s
 ple asure
 driver s
 recommend ed
 unf amiliar
d avid
t ina
 un wra
 am ount
n ick
 mill er
 che ers
jo ey
 surpr ising
pec ting
 mar sh
 l ower
 m i
f ro
 rever sed
 camp ing
 bow s
 ca w
 band ages
 in sp
u ing
 t ing
 occ as
 moo ed
 tw ice
 t in
it ion
 wo bbled
 s ill
 fin s
 tire s
f riend
 blue y
ile y
 sque al
 grocer ies
itu de
 bottle s
 ell e
 ad ult
 cold er
che l
 ch ip
c ra
' ."
ver s
 m iles
 behavi our
 temp er
 top s
 ab il
d an
p ap
p it
h ny
 cash ier
 for ce
 flo ck
pt op
 ske lly
 effort s
h op
al right
 famil iar
 trem bled
 sc ored
 fig ured
 thr own
 res ults
ri bbit
a bby
 cor rect
 lift s
 in ches
 leaf y
 garden er
 relax ing
 st it
to by
 wr itten
 are n
 on ions
 apolog ised
 pout ed
 need les
th omas
 ray s
 re fe
 new found
om ise
 ta pping
 repe ats
 chose n
 we eds
 peace fully
 m ichael
m atch
 bel ts
 guard ian
 grass hopper
 dec ision
 mis chie
 bra d
 heal ing
 insp ired
 c ally
 e ase
 par ted
 explore r
day s
 trouble s
 tub es
 sque ak
au nt
 sniff ing
pe ople
 dri fted
 d ump
! ’
 play room
 res pected
 swim su
 with in
after wards
 ban ged
 punish ment
jo sh
 pan cakes
 bec omes
 langu ages
 mischie vous
co co
 speed ing
 repe ating
 br ighte
g ers
 on ward
own y
 borrow ed
 seas ons
l iz
ide y
 ye lp
p op
 neat ly
 wra pping
 goal ie
 la ptop
 week end
 ta ped
 w endy
 act ion
 ch r
 dri pping
fu s
 you nger
m on
 pige ons
ic i
m s
 swall owed
 g er
 back s
be e
? !"
b ill
 sp ice
am b
b eth
ch o
 fl ick
t ry
j essie
 colour ed
 refe ree
or ing
 e cho
pr omise
 co nd
itt ed
 he ight
c her
ro b
 jack ie
 robot s
 sh oo
st y
 cautious ly
 stri ps
 shark s
 l ump
 friendship s
 sw ap
 is abella
 fl own
 ni bbles
 invit ations
 arri ves
 behavi or
 dress er
 crack ers
to ck
s oup
 hedge h
 mon ths
 fool ed
o bey
jam ie
 conn ected
 design s
 weig hing
 tipto ed
 moon light
 pl ot
 queen s
 fork y
 sens ation
 play house
op en
 mam ma
 spice s
 pur p
 spill s
 other wise
i as
ide nts
 fix er
 gu y
 fl ora
 begin ning
 hedgeh og
 pur rs
 joy ful
 ste ppy
 gra bbing
 liz ards
 knot s
 mes ses
 b i
 draw n
 clean er
 l amb
 win ners
 s ly
 ri a
 breat hing
ap ot
ias m
 aunt ie
 na pped
 co sy
 haircut s
 guess ing
 rat s
 bother ing
 nuzz led
 enthus iasm
 stit ches
 gro aned
 smell ing
 wa king
 pat ches
 shap ed
 pack ages
 wr ink
 acc idents
 cra ft
 will ing
h ive
 sniff s
 kay la
 sw o
 crack er
ac les
 h oo
 cross ing
th ur
 sec ure
 swo llen
 bother ed
ri ous
 sand pit
 dis obey
 te apot
an s
as ers
 bru ises
bar ry
c ope
 le nt
u shed
op es
 bell ies
 la nt
 a im
 con s
 will y
 lant ern
z ara
j on
 thorn s
d anger
b essie
 co ach
 wh imp
 poke s
 ab bie
 low ered
 bu lly
j i
 to t
 re ct
 purp ose
 bee hive
 sh ady
m ates
 spoon ful
 cla ire
 libr arian
  2
 sm ashed
 ro ds
 gl ared
p inky
 mean ing
 care s
iv ity
 me als
 mark er
 o ink
 for m
 exerc ises
 d aring
 cent er
 good b
 peel ed
 uniform s
fin ite
 sniff led
 wo bble
 screw s
 dan iel
 gas ps
 wh ales
 di p
 bird se
 wh oosh
p ip
 tum mies
mar ie
 worry ing
 lou ise
 frank ie
 la ces
 p on
 correct ly
 resp ond
 scratch ing
i ky
 beep ed
 mo ons
 not icing
 sp idey
 sp iky
 destroy ing
 gas p
 de finite
 stretch y
 ed ges
 store keeper
ba bly
bri an
 el sa
 motorcy cles
 ra chel
 k ings
 film s
 suffer ing
us ing
 cl icked
 rect angle
wh ich
 aeropl anes
sh aring
 sl apping
fr eddy
 job s
 definite ly
 label s
om b
 t ying
 mix y
 cra bby
 admir ation
 we pt
 de ed
 bl ast
 belong ings
 b omb
 display ed
 scur ry
 bea ver
 stamp ed
 fa ith
 mass ages
r ig
sp e
 wid er
 jo dy
 swe ep
z i
pp ies
 con vin
 creat ivity
 v iolet
 stream ers
 goodb yes
free ze
 shop s
 hor iz
 cent re
 water fall
 exce pt
 pon ies
 po sse
 me owny
 door way
ol ive
 instrument s
ri ck
 insist ing
 enc ount
 tum bled
 ch anges
or ter
 ru fus
 wa ded
 discuss ed
o ey
 encourage ment
g ic
 int rig
 mind ing
 man ners
 real izing
 min ts
 posse ss
 ser v
 encoura ging
 pro bably
 sweat ers
 birdse ed
bo at
ul f
 fill s
 cheap er
ri e
 i ll
ch y
 lar ger
 g in
 brighte st
 b on
 ch ug
 fo cus
 mel issa
 g est
be h
n na
 en g
 in j
on ly
 dance s
 angel a
w ater
 cons id
ert ain
s of
 s ofte
 sa v
 squ aw
 m er
 h u
im mer
 wise ly
nt ly
l ings
an ced
 cl ues
 gigg les
 c oug
 hands ome
 spring ing
ill ed
 bit ten
 horiz on
 activ ity
 gem s
bb ling
 street s
 to ad
 charac ters
 fisher men
 class mates
 visit or
 st ings
 gen ie
 run ner
 r alph
 allow ing
ina ld
 vehic les
 t ato
 cop s
 visit s
 present ed
 cut ter
 to ck
 flap s
 resp on
 g on
de al
 greet ed
pap a
 st acked
s pl
 screw d
 thought s
 polite ly
 retur ning
 vest s
 l uc
 st an
 pen nies
not hing
 sl inky
 ed die
 stir s
 blo cked
 bo l
 ta pped
 scurry ing
 f aded
 bra ver
jo lly
 comm on
 reg inald
 writ er
 pan icked
 drive way
 hesit ant
 d ama
imp ly
mb ers
 gon na
 fl a
 through out
 me mbers
 seagull s
 aw are
 ha mm
 screwd ri
 pour s
al bert
ant ha
== ==
 ne ct
 dan gers
 dama ged
st alk
 his sing
 pen s
 delay ed
 spin ny
b age
 stern ly
 c ici
 fla ppy
 prep aring
 sn orted
 st un
 bean stalk
 forgive ness
 re app
 mesmer ized
qu ick
ins tead
 pl ug
 bat hed
 se als
 ant ic
 travell ing
 cre ations
 aff ect
 st all
fr ank
 gl itt
 brave st
 bo ards
beh ind
 re wards
 magic ian
 grass y
 s imply
 bea st
 gar bage
 ca fe
bir dy
 cl ue
 farm ers
 comm un
w ant
ur day
er k
 rot ten
 screwdri ver
b ro
 set s
 sat urday
 la uren
, '
 antic ip
 outf its
bro ken
zz iness
oun ced
 di zziness
 act s
 bit s
 respon se
 may or
 anno ying
 jo an
 t ies
u sed
 sprink led
 pay s
keep ers
 sad der
 p i
 sc amp
 bel oved
 bu dge
 intrig ued
 flo ats
 obser ving
p y
t illy
 u na
 m itt
 difference s
 buck y
 cle ared
 wrink led
v a
 ke lly
w or
 demand ing
k ids
f ire
 tow ard
ir a
irl s
of f
 risk s
umph rey
b op
ho le
sl ow
de ar
ay a
 a is
 nect ar
 sce nt
c on
av a
b ed
m i
 puzz led
how ever
ong r
 race s
d es
 con cer
er ing
 own ers
 cot ton
 na sty
ance s
s que
ss y
 bur st
 lau ra
on ment
 teacher s
gra b
 p ouch
ir onment
 scold s
 terri fied
 una ble
 mail ing
 convin ced
 sun flowers
 bob ba
 forgive s
 pedal ed
 che at
 ear ned
 newspap ers
ath an
 flav ors
 dollar s
 heart broken
 bird house
 envel opes
 share s
r alph
 basket s
 spray s
 invit es
u ses
 j une
 cup cakes
cu sed
 choo sing
 hat ty
 corn s
b oth
h mm
 sail ors
jo hny
 wis er
 yelp ed
 hot ter
 sweet est
 am used
sh are
 z oey
 crocodile s
 encount ered
 pill s
 store s
 offer ing
 dess er
 glow s
ver al
 ro y
 ti bby
 long est
 mo ppy
 f ist
 support ing
 gener osity
do es
 cable s
 gu ards
re pe
oo chy
c la
 opin ions
 anticip ation
 b ou
b ell
 roar s
 materi als
 pack et
 ' '
 aud rey
cla ire
 magaz ines
 stomach s
 fo cused
 hesit ation
 bou qu
sad ie
le ave
 symbol s
 bat tle
 forgive n
c aw
at itude
 r ack
 c ertain
 ab i
un cle
 bouqu et
 shin es
d ate
 se veral
 gr atitude
ie ce
 temper ature
 gr um
shr inky
el ope
 river s
v ia
 swall ow
 explor ation
er ate
b inky
m ad
 post c
 nervous ly
 appreci ation
s un
 meow ing
 rec ip
 s ou
 fun n
 sh orter
 pl ugged
 lunch time
 ger ms
e at
 dress ing
 stat ues
 quack ing
p are
 dream t
 sy rup
 beam ing
immer ing
w ig
good night
 pig let
l ine
 cl erk
 cloth s
 mush y
sh ould
 the at
 min a
ad am
c lo
 sh h
tr ust
cream s
 ra king
 n ate
ac le
will ow
 perform er
 env ironment
 sn ar
 ama nda
 comfort ing
 p ant
 mil o
 st a
 re ass
 sail boat
 munch ing
ck less
 int ent
 disag re
 pi ppy
 a ly
l via
 g ap
c ri
 rust ling
 bu d
is abella
bo om
 crow d
 desser ts
 will iam
cl oud
 exp ress
g ot
 b less
 t end
l ot
 his ses
 sk ate
 grand pare
 re ckless
 lung s
 art ist
 tra ding
 wa dd
 le xi
 e ld
 b ound
 c d
bb ie
ment s
 travel ing
 sn ug
iv ia
ic s
ill ip
es ses
so l
repe at
 real izes
 c ongr
 coll ap
 ostri ches
 de fe
d in
nt r
 clos ing
nd les
is te
 str um
 perm itted
� �
 cro aked
 gl iste
 j ing
 slither ed
 pen elope
 tweet y
et s
ch ing
 dig s
up in
 squeal ed
b il
  5
 cloud y
 slip s
 disturb ing
 hat ch
 her on
 dad dies
 n iece
m oo
big ail
 m essed
ho ppy
 whimp ered
ki ki
g og
 ph illip
 bend s
 ex pecting
 fact s
 team s
 storm s
b ank
 scra ped
 ni bbled
 tun es
 bree zy
a bigail
 answer ing
 sp y
 warm ly
 dig ger
 smo other
 exper ien
bra nt
 dar lings
 river bank
 g lee
ro bert
 bl ades
up id
 real ise
 en em
 crown s
 al bert
dd ie
 press ing
 mug gy
 truck y
 gu ided
 gu esses
 grum bled
 plan s
 perform ance
t age
a by
 pupil s
 pe cks
 cell s
 r y
 whist ler
 ben ji
 vi brant
ex it
fin ny
 concer ned
 swimsu its
 experien ced
 shr ank
 wh ine
 cot tage
 second s
 re ly
 compet e
 t izzy
 suit s
 ais le
 may a
 beep y
 cream y
 � �
 cous ins
st upid
spl ash
 jet s
some one
 guard ing
 door bell
 wink s
 quarrel ed
 pet al
sque aky
 l ull
 spo iling
 fin ishing
 par amed
 abil ity
 explain s
 pap aya
 hunt ers
 ri ches
 ru shing
 his s
k aren
 paramed ics
 sun s
 o dd
it a
 ca using
 ty pe
 de zi
re sa
 ma ddie
 prov iding
ord an
 gl anced
 hipp os
 obey ed
 te resa
 understand s
bb ers
 med als
 car ve
c atch
 bu ssy
 ri cky
 sty les
w ake
an ne
 sal on
 ro bbers
 travel s
 chew s
s now
 inj ured
 vo lly
 desig ning
 helicopter s
em on
 pas se
 tool box
friend s
 re un
 rep airs
 da is
ry a
 thunder cloud
 snow f
 tou can
 ann ounced
 dais ies
 expl o
 fire s
 ry an
 joy fully
 whisper ing
sof ia
ro bby
 all ey
ja cob
 suit case
 ro be
 a rya
 lumber jack
 jane y
 bob bie
 angri ly
fro ggy
 fl ips
a ly
 car a
 bl ur
ang les
 bl ade
we e
 delay ing
 d emon
g igi
 lull aby
 was hes
 situ ations
 bulb s
 tri angles
 novel s
 disobey ed
 del i
 angri er
 lo cks
u ise
 siren s
ss a
 c once
 play date
to ot
 jump y
 m s
 ar r
ac ing
 disagre ement
 different ly
 fl ipp
 fo ggy
 welcom ing
 deli very
z ig
 pro ce
 tent acles
 cricket s
 book er
 snowf la
 scamp ered
 cl ut
 cover ing
 sled s
 pract ised
 shin ier
 bol t
 d ing
 bend y
spe edy
 fa iled
 owl s
 lau rie
 he aven
 bloom s
 kang a
ch ild
 lecture s
 gest ure
 tid ied
su zie
st and
 enter ing
 f ulf
 ch atter
 dri p
 bi bo
b s
 pl um
 achie ved
 fin al
el a
 echo ed
ad ing
l or
ugg ing
 pro ve
 so ot
id ence
 mug s
ice nt
 ha b
 cra shing
 steer ing
j ess
 enem ies
c co
 att end
ig e
we ed
 mi xture
 p ound
 a id
 mix ie
 sea weed
c ted
ver ed
g re
o y
 p uck
ur n
 demon st
m ate
 theat re
 res isted
st ick
gog o
ind a
 refre shing
 stom p
 smar test
c a
rr r
 pr ank
 r ita
 und one
ul a
m il
 color ing
at ul
 mar tha
 r ises
 k etch
 learn er
d uck
 applau ding
 post s
 ste pping
 stro ke
u ctor
 end ings
 aw ful
 height s
 web s
 comb ing
 ri ck
 h ula
 cher ish
 comput ers
 test ing
 lesson s
p olly
 af ar
 woo ly
 on line
ro ck
is n
d oo
 g ia
n ice
 hand ing
 att ack
 pas ses
 intent ly
 inst antly
 ag es
h ope
 astronaut s
 gia nts
ven ir
 ro sa
” ,
sad ly
 sile nt
 ting ling
 anna belle
 cond uctor
mar tha
 forest s
 yog i
 bill s
 cl ive
me an
ar thur
 bury ing
 matt resses
 hear ing
out side
 g ill
 neighbour s
 chr is
 ho st
 disappear s
 sp ies
 j emma
 snowfla kes
 char ge
ore nce
 mesmer ised
 introdu cing
 bee bee
 dump ed
mad die
 spill ing
 dod ged
 for ts
 sav anna
ard o
 calm ly
 aly ssa
mar ia
 weigh s
 fence s
jack ie
 cel ia
 ra e
 th ie
 fred rick
 j ed
qu ar
 te nts
 contain er
pr in
 particular ly
 ha nk
 intellig ence
t ara
 sunday s
id dy
 sou venir
 swit ches
prin ts
 sway ing
 stom ped
 queen y
 zoo keepers
 ro lly
 stain s
 treat ed
 kneel ing
all ow
 ke vin
 experience s
 carl os
 a quar
 aquar ium
 octop uses
 occas ions
 see king
 bu ndles
w ed
at y
 shoo ed
wig gly
 dive s
 unwra p
 demonst rated
 flutter ing
ma gic
 pl umber
 firefight er
 thie ves
cu rious
 cl ip
 persis ten
 f el
 weak er
 whe e
 water mel
 emer ged
 watermel on
l se
ch loe
 freez ing
al i
 d and
 car men
 stret ches
 peel s
 lamp s
 dand el
 fl orence
amp s
sp in
st ill
ke lly
o xy
u ardo
en na
 dri ft
 exam ining
 ho of
 persisten ce
 enjoy able
 h umphrey
 sam antha
 squaw ked
 bo il
 dod ging
in cy
st orm
 qu ilt
 ed uardo
 p oop
 appro ach
b ling
 occas ion
 airpl anes
 john son
 mind s
 bess y
 coug hed
j ay
 ball ie
sur render
 f et
 sl ug
 cop ied
 tre as
 blue bird
bu ild
jam in
 foot prints
 wr igg
ans form
the o
 disg uise
 waist band
 clo ver
oura ged
d inky
 unt w
 wo lves
 ear r
 b am
 p oochy
 ketch up
 earr ings
 gear s
 protect s
 aff ord
 sna pping
 recip e
 fel ix
d r
 god mother
nd red
 ob st
c ouraged
 bark y
gu ard
ic ate
 di ps
is a
 l ur
 life guard
 peek s
 em bra
mean while
 o x
 prin ty
 er asers
 re n
 h uff
 accompl ished
 unt angle
re st
 reun ited
 be cky
 than king
 ex ch
 sce ner
o la
e le
 melt s
 scener y
 gin ny
 or in
p ot
 b orn
 night fall
 soph ia
w en
 tr ansform
ce l
w s
 add ress
 c ory
 snar led
sol ute
 l upin
ball s
 l imp
 sc re
 meat balls
bo y
 d et
 wra pper
 ele ct
t wo
i bil
 le vel
 temp ted
 check ing
 la z
o at
 blo b
 ham ster
 pu ss
 po ppies
w ar
te mp
che ap
d own
 car p
d ges
j u
n ear
 m ate
 sp ed
s im
 ch ant
s ack
t ick
car l
child ren
br ina
 at temp
 stroll ed
 d ep
un ched
ra bbit
 hu ndred
 app l
 freed om
 rid er
 apr ons
ic ious
wor king
g r
 congr atul
p ow
 m ur
 pearl s
 skate board
 wh ir
l ong
 conf idence
 cr uel
 ha w
 i cky
b ack
 herb ie
 war ri
act ion
 hum ming
' ,
 d ashed
 wood pe
am and
n ate
 stro kes
 per ri
 m ick
 ener get
 li zz
 discuss ing
 draw ers
 k aren
 energet ic
 lawy ers
 thanks g
 fa cing
 ro cco
 mer ma
 exp ert
 ra v
 roof s
m ove
br rr
ent y
 h ood
 po k
 mill icent
 lizz ie
ig ger
 am an
h oney
 harm ony
 jo anna
ot o
 staff s
oup le
 bo lly
 fan ny
 m ous
 j ordan
 ro lo
 le aking
 materi al
 quack y
 bur row
 ke ith
 good ness
 k in
 ri co
 outf it
ck er
 up side
le af
 bon nie
snow y
up ine
 slap s
 kiss ing
les cope
 ruff les
 ru sse
 rest oring
 po se
o ard
nt astic
 marsh a
che ck
 rav i
os cope
 among st
 disappo int
 mess ages
 weap ons
sh op
dave y
 zipp ing
 pilot s
 pand as
ro ver
 hang ers
 dis couraged
 abil ities
 bl ushed
 ab oard
 t umbling
 ch ill
 sta cy
 g wen
 dec l
m iest
 night s
 ho ses
 f erry
 z og
 hon king
 tw enty
 swan s
 re build
 gu ilt
 decl ared
 disagree ing
 russe l
 squee zes
 pip es
 st eth
 chat ted
 n ora
 fl ashes
 li nda
 snow ing
 wadd led
 ha na
 proce ss
 fl ashed
 ev a
s end
v as
 si enna
 holiday s
ah oy
a bra
 ne cks
 collap sed
n ora
 bo oth
ble ss
 bu bbly
ar rr
 ro py
 ur ging
 k illed
 pedal ing
 sneak s
 pok ie
n ina
 work shop
da ughter
 toss ing
 coo ed
 shrug s
 ra ising
 under water
 since re
ch ard
 jack s
 lur king
 lu sh
 sett ling
 hard est
 be ating
 or chard
slow ly
 steth oscope
 squ ished
 wild flowers
will iam
 truck o
ntr um
 anna bel
t ail
 frust r
 valley s
 fu zzy
 la ce
 chocol ates
 fle ur
 can vas
 surrender ed
il ted
 f ade
 al b
c upine
 alb um
zig zag
 pro ved
f action
 nightmare s
cen e
 beep s
 j ason
 key hole
 por cupine
hi ppy
 stor ed
 gr amps
 cub s
r in
 ch in
 he y
 commun icate
ele phant
 real ity
 pony tail
bec ca
 z ane
m int
 sleep s
me gan
an et
fo xy
g irls
 tr igger
r uff
ret t
 car ries
 mailbox es
 bush y
t am
 row ing
 ho e
 success fully
 f ired
as ant
p ret
 snee zes
 cat e
 glitt ered
 che et
 windows ill
 lean s
 protect ion
im a
 mar ve
im ent
t oto
 sweet er
nna h
 ha nnah
 mur ky
 diamond s
 k aty
 ta ntrum
 hook s
 woodpe cker
 bump ing
 bl ake
 in form
 sign al
ster ed
 dandel ion
 haw k
 ma bel
 contin uing
 jon ny
 past or
 exam s
br own
 goo ey
 lay er
 chant elle
 yum miest
 di v
 jo die
 frustr ation
ir an
 mu stered
 le a
 magn if
 hab it
 di al
z oe
 woke n
 head ache
 mind ful
ton y
 ord ers
 glitter ing
t ree
 unwra pped
 out come
ou ched
 luc a
 thanksg iving
 sn ip
 bang ing
 agree ing
 n or
 ha iley
j une
 rag s
 sa cks
 chain s
sh ap
 elbow s
 paul a
cl ick
 bra kes
ic ated
 th ump
 te lescope
ive ly
la w
in ct
 se an
 jon athan
 dri ll
 comp an
 am ie
 hor ri
 s cene
 spid y
 beauti fully
 stun ning
 cur re
 eng ines
 mous y
 sn ipped
 cl am
 grandpare nts
 j ugg
po ison
 cre ep
 stack ing
 su s
c led
 fa ntastic
 cur l
 r ory
oe be
n ip
ba a
 adventure r
 con vers
 con qu
 su sp
 pro d
jon ny
wed nesday
bra d
lu ke
in n
n ever
 haircut ter
 mel inda
ive s
sh a
 susp icious
 test s
 bam boo
 discover ies
at t
 tour s
solute ly
 space s
 ast on
 own s
m ouse
 r out
c andy
o ving
 cow boys
 sh atter
p am
 c ouple
 bound ed
get s
 ch illy
 cho pping
 serv ant
rr rrr
 ol ivia
 comp let
 sandcast les
 int er
 resc uing
 shoot s
ah h
 exper iment
ll ing
 fet ched
 it ches
 compan ion
 beak s
sh adow
 kayak s
ighte ning
he ar
ch ick
 respond ed
 cr ushed
m ered
 che ated
u se
al ong
bo ards
 dr own
 ta ps
s pr
or ay
j anie
 n at
 des cri
pr ince
 w icked
 reapp eared
 post man
 custom ers
mil o
 possess ion
 transform ed
 ni bble
z el
 tim id
amand a
 cheet ah
mm mm
sl ap
 wind s
 de e
 mat s
k a
 cow y
 law s
 pl ank
with out
ri c
 cl uck
 shr unk
oxy gen
 elect ric
ou la
 treas ured
 flipp ers
 sculpture s
 must n
 padd ling
un iver
ke lse
!' .
 warri ors
 say id
 laz ily
 cob ra
 pa ige
 win king
 g iddy
 accident ly
 cir cled
 fold y
 sl ime
 postc ards
 island s
 dri es
  ”
ia o
 listen er
 y uck
 r uck
ce lina
 cr ouched
 m end
m allow
 x iao
 sprink le
 deser ves
 trust s
 cow boy
 prom ising
 car ton
 pri zed
 pri zes
 cond ition
 land ing
 gulp ed
 yield ing
 mam my
ist m
 kneel s
 li a
am bled
 rain co
 meet ings
 sur v
 conce nt
 refu sing
 ju dges
ye sterday
 appl ause
 sp ied
 challen ges
 phone s
 ro les
 mot ors
izz es
 beg un
 complet ing
aunt ie
 hate s
 ste ven
 cho pped
ri xie
 rele asing
 proper ty
 ri bbit
 mo ira
 magnif ying
 inform ation
 fl as
 fight s
 fu rious
 sus an
 j ellie
 softe st
 rac ers
 un less
 concent rated
 fis hes
 coo le
 serious ly
 lantern s
 tend er
 d umb
s our
 cool ness
 attend ant
w ally
 b ert
 stri king
m ila
 wigg ling
 enjoy s
 floor s
 dav y
 pl at
 fair land
 convers ation
nd e
fe el
 inst inct
istm as
 hamm ers
 sure ly
it am
 nuzz les
 hamm ered
 ren ee
 cudd ling
 c ities
 ar thur
 jar s
 trail er
 horri ble
 leap ing
d are
p an
 blo nde
 sway ed
 car ved
 cal f
 add s
 wood cut
v iolet
 sa sha
 deser ved
 nur s
feel ing
 mar cus
 check out
 sa ves
 gl immering
 waistband s
 mon th
 defe ated
brown ie
lau d
 pistol s
itten s
i ens
 s inking
 swimsu it
 delight ful
 cost s
 n ic
 det ail
dan iel
 squ inted
!' '
 wrigg led
bir ds
 jo hny
 ot to
app laud
 cauli flowers
lau ra
 war my
 scoop s
 wh ines
 co cked
m ichael
ately n
 lo af
 off ic
 nur ses
 pine y
play ing
 a choo
 plat form
 r ir
col ored
 follow ers
am on
 band s
 ben jamin
 ju dy
 rir i
danger ous
amp le
 d itch
e in
 pl un
 flo ppy
ct ion
 le ashes
inn amon
 disappear ing
 ex ample
ring e
 zip s
 att itude
 conn or
 pant ing
 dog gie
 jeff y
 c innamon
la uren
  4
 ma in
clo ck
 sniff ling
 consid erate
l ion
 bob b
 charac ter
 hoo ves
 kn it
 prot ein
 k iran
 unicorn s
 cra cks
 serv ants
 scare s
 c oop
 shy ly
 car i
 offic ers
 chug ger
 hand les
 mix es
 cat nip
ay lor
m ittens
 matter ed
 ni bbling
kelse y
 flas hing
 lar ry
 satis faction
 al iens
 meow s
 k ari
 ma j
 fl icked
 ro amed
wh ist
shap ed
 lun ged
to ys
 dep ths
 co iled
 cr is
 sle igh
 wa nna
 set h
 scr unch
 cher ished
w is
par able
 sub mar
 umbre ll
din o
 surv ive
 tr ot
 cre ak
 suggest s
 ear n
 to pp
 inse parable
 desk s
wis dom
ew w
 speed s
p her
 belie ving
 tank s
mallow s
 marsh mallows
 confident ly
 tra ps
 umbrell as
ma il
 nic ola
 sharp en
h and
 le ver
 m ound
 ty ler
 sm ash
 coole st
 speak er
 nation s
 ple asant
 ben ches
 spoke n
ant ed
 ne ig
pipp a
 borrow ing
 fort un
v ince
 st inky
 con vince
fin n
 nurs ery
 r uth
 grand daughter
 move ments
 g ates
 pe ck
 spe ck
ma bel
 honk s
 se ction
 supp l
 op t
 town s
 con te
 bobb ing
 fly er
 tr im
 tre et
 pre y
 conte nts
 picnic s
sp ark
pret ty
n ut
 mate y
 rainco at
 nest led
 beth any
 extra ord
 extraord inary
p ark
 t ar
ud ged
 incre asing
 quiet er
 scr ambled
f ie
 sp ud
 an a
 compet ing
 mark ing
ain t
 curre nt
 free ly
 man ager
 drown ed
 t ugging
t able
ste lla
 car ol
 g le
 gliste ning
 res pecting
 st ump
 soft ness
 soon er
i al
s um
 thumb s
 near ly
 succeed ing
 hop s
 doors te
 obst acle
 ha zel
 spr ung
 mi key
 v itam
 crow ded
 snee zy
h oo
h anna
 kn ives
. ’
 cup cake
 woodcut ter
 ruck sack
ed die
 ca f
 adventure rs
 bend ing
 dust pan
 oak ley
 collar s
l ife
 des per
 gre ed
os ure
hanna h
 thank fully
p izza
op ed
flow ing
 softe ned
 ser ving
 kind est
ak er
 camp fire
 hum med
 mo an
 r umbling
al ie
 wor st
hn e
em ima
 sy ringe
c ir
 t aylor
 soap y
ll s
 gle am
 submar ine
 secret ly
br ing
 pass ion
 slice s
 sick ness
ance lot
ient ist
 puff y
 alligator s
 f ading
 bl ed
ss il
 fo ssil
 ra cer
 g room
 stud ies
but ter
d ream
in c
g row
 ph oebe
 hon or
 sc ientist
n ings
 ra ked
 fulf ill
t re
a a
h or
fro g
ra in
 out s
 do dge
 appreci ated
? !
ri er
p in
 zebra s
ap hne
st art
 tid ier
 lumber y
 eld est
univer sity
jack y
 maj est
ll ent
 tick les
it es
al ity
 pond s
 beet les
 back ground
s weet
 pops ic
cat ty
 mel o
 lo c
 suppl ied
 qu izzes
book s
 l asers
 chr istmas
j illy
er al
man y
 s id
 craft s
 fun eral
 sc owl
 d ate
 fascin ating
 po sit
 puff ed
an ation
 sc ience
 scru bbing
re s
 along side
m o
 surf ed
 mil a
 sy lvia
wh oosh
 expl anation
el ia
 conn ect
 bus iness
st ret
 ar rest
unt ed
 gold y
 suggest ion
 trumpet s
 piglet s
con fused
 o ar
 table t
 fa il
 quack s
t rixie
o ver
 aer o
me al
 rare ly
jo iced
 ser vice
 n ood
ur dy
 card inal
 dis ob
bu bbles
jess ica
 em my
 add resses
 ris ky
 sun g
sna ke
ot ion
 fred die
 mon ty
 g ary
 fr ances
ook y
 dis aster
 oat meal
 marve led
 clean s
 ch ugged
rup ted
 refu ses
 char ity
 fif ty
mon ica
arm en
 pe a
 yaw ning
 pu ppies
s ash
ren ch
 swings et
 certain ly
 aston ished
 valu es
 fl op
 buck led
 din ners
mar ry
 sell er
 th ous
 pudd ing
 grand children
 embra ced
 electric ity
 liz a
 colour ing
 re ena
it ched
 trail s
chick y
 clut ched
 pe ering
oc ular
op eration
ocular s
ump led
 respons ibil
k o
thing s
st ir
 en ch
es y
 peel ing
 eager ness
 reve als
 detail s
 y ay
th ree
 hen s
 dry ing
 t erry
 s ipping
 oar s
 f aint
 sm elt
 mel ons
 topp ings
 nice st
 r amp
 lo s
an age
me g
 st ained
c hest
ru dy
 sn oring
om i
 sh ave
 cr ut
 aw oke
 pec uli
 explo de
y ield
 aid en
a beth
 pur ring
 mo at
 unf or
c ies
look s
 order ing
 chalk s
f ived
 passe ng
 cr ops
 surprising ly
 in ched
 pet ey
 peculi ar
 sw irls
 buck les
 how l
 att acked
p oula
 d aphne
 ench anted
 sc ores
 mo pping
 magic ally
 j as
 sp ades
 a ur
 bo nd
ro sa
 unfor get
 p iled
 pay off
 env y
 lip stick
 crack le
 pen ney
ul ia
 pin es
 kangaroo s
 ra ises
c armen
?” .
 lis ts
 do omed
 repair ing
 enthusiastic ally
 warm ed
 com promise
 health ier
le opard
 hundred s
 j anet
ben ji
 sa brina
 bull ies
aid s
 temp ting
 stum bling
 sp ooky
 untw isted
 park ing
 enc l
 cup boards
sy lvia
o pped
 scoop ing
 do ck
er nel
n ana
 wa ry
every day
 beep ing
 palm s
 pa let
ipp ee
 scre ec
 ins pected
pr int
 emergen cies
 own ing
ma ke
f ido
gg les
 clo ak
 ste ered
 pl opped
 pin ches
 sc aly
ma ged
is ible
ver ing
p ass
 ty pes
 mess ier
 sent ence
 a fl
whe l
 ri chest
 clut ching
 luc as
 pound s
 bu bbling
 rot ted
 encl osure
ri ly
 grill ing
 exce llent
 palet te
 decor ation
whel med
 st urdy
bl ower
 em era
amp i
 display ing
 ser ves
 limp ed
 lay ers
 scold ing
" !
kay lee
 app et
 possess ions
jo in
 ca ges
 plank s
 we e
sash a
k ali
 j emima
 check mate
 otter s
pe ace
ernel s
somet hing
t ie
 bo iling
 garden s
 arg ument
 snail s
ho oray
 loose n
we ety
 l ancelot
 imp act
um ed
 crawl s
 shield s
 str ay
’ .
 cro ak
 - -
 how led
 ho vering
 wind ing
n umber
 ce ce
? ,"
im its
y ippee
 pick le
 unforget table
 tidy ing
 nor th
 mitt s
 w rench
t weety
 ra iling
 screec hed
 inter rupted
 afl oat
 thous and
 wise st
l iness
 gr umbling
wh ose
 jay den
 fu zz
 deep ly
 na omi
ze e
 inv isible
 la va
 meadow s
 exch ange
 disob edient
� �
ra cted
 ta ker
 com mand
 che esy
 sink s
 vent ure
 marry ing
f ield
ree ch
 comm otion
 kind er
 tip s
 purr kins
and ar
 un sc
 choo ses
 nood les
pa ws
l ost
tam ia
 carpet s
 pl acing
an imal
 sle e
 ma shed
 exerc ising
 fas ten
 sw ir
 jump er
 aur ora
 d ed
 ba iley
 reapp ear
 leap t
y le
 truck ie
 landscap es
 go pher
 plug s
 su pper
 k yle
 k atelyn
 k ernels
 view s
 content ed
 fl ipping
h ide
ri l
 vend ing
 ax es
 passeng ers
t id
 deep est
 commun ity
 reass ured
ch ief
  9
ph anage
 hurt ful
f our
 tweet s
k ara
 eld ers
 fo am
 sna ps
 los ers
 stun ned
 ta les
a x
 cool ed
s leep
l ucky
eth ro
 sand als
 mis ty
 light ly
 rum maged
v al
 har ley
 de eds
any time
 j igg
 sh immering
 emera ld
whe ee
 p ace
 pinch y
 st am
u a
 flow ing
on a
 good ies
 qu incy
b la
 gl oom
 f ate
ch a
ate st
 jill ian
 pl us
hen ny
 al fie
 pam ela
 fore shadow
 ar om
 re joiced
 k irsty
 rout ine
 coop erate
 stro king
 arom a
 und o
 j ulia
 express ion
op al
ul ous
 cold ness
m art
, ’
 blink s
ent er
 funn ier
 rec ords
 fi ona
d ually
 tick ling
b oun
 go ggles
ick ing
 ting le
ent ial
 descri bed
 fo nd
 pot ential
f ind
an other
 passe nger
 h ips
 capt ured
 har vest
 po les
p en
 bu bu
 bi ko
 fu ss
 thick er
 al vin
 desper ately
 fox es
 br ide
 number ed
bel ie
 practice s
 sweet ly
 or phanage
 comet s
 un st
 luck ier
 div ided
mar riage
 la unch
 tw itched
 fin ishes
uct ion
end ing
sum mer
 gliste ned
 collect s
 fool s
 avoid ing
 right ful
 sig ning
f ying
ra w
boun cy
 postc ard
iz abeth
cl imb
 gin nie
 mo ld
 unk ind
id den
 tuck s
 pillow case
ac ulous
may a
stick s
 sc ri
 breath s
 el izabeth
c row
 sn atch
 cr umpled
 day dream
 de f
 bal oo
 tri umph
 bin oculars
 fl uff
 imag inary
 jugg le
 sun b
ur s
b t
 te k
 r in
 engine er
din ner
 do zed
 clear ly
start led
ro bbie
 wa x
 gra dually
sim on
 conqu ered
c ited
 ba s
 compl icated
 ma st
 jas per
 apolog y
 d ou
 h int
 gl ues
m am
 warm est
be cky
e se
 vol unt
 over whelmed
ic ia
 thunder storm
 bed ding
 jing led
 coug hing
ath a
ri ley
cra b
 n ina
ig n
 seas he
 funn iest
 grand dad
f am
 glad ly
 fr ight
 neig hed
 cour t
 m ow
v y
 d u
 tast iest
 tra der
 expl os
 sing ers
 acce ss
m ind
 lunch box
==== ====
 thr one
ar row
 ab solutely
 stri pe
 crut ch
 responsibil ity
 snug gly
 cap ture
 j ad
w ink
 adm it
s ion
 sam uel
 op al
lot te
 insist s
 bo ld
 gl ided
 event s
aid en
w in
 glitt ery
ic ally
ress ed
 unsc rew
 dec iding
j e
d ers
 no elle
ern ie
 snow ed
 bru ised
 un like
 dist ract
 strike s
 fu lly
see ing
be ha
 attach ing
 like ly
ed ed
 spin ach
 painter s
 soot hing
 whip s
 sp out
ex cited
 bleed s
 mir a
 cap es
 notice s
 can oe
 loc al
 tam ia
 flood ed
sc ampi
 support s
re ats
 slow s
 imagination s
 prun ing
ha iley
 steak s
 structure s
 cur ve
 lo ser
 interest s
 achie ving
rel ax
 number ing
bel ief
 posit ive
 jing le
izz ie
 mo aned
 slid er
 sweep ing
 seal ed
 suggest ions
d ar
 arrest ed
 tray s
 tooth brush
b idden
abra c
 stam mered
al though
 rep ort
c ici
 disappoint ment
po or
 sile ntly
 lad ders
jo jo
 but ch
br is
no elle
su es
keep ing
 long head
 can ary
bla ke
 stubborn ness
 d uel
 for ked
t aking
 al isa
 loving ly
 exch anged
el ve
 ele ven
al ing
 green s
 yard s
got cha
 over flowing
dr ink
 ru ins
 spring time
 weight s
f etch
 inst ant
 lila h
 dri ven
jay den
 bo omed
 buzz es
sh ake
 cre aked
des pite
butter fly
le n
 jam med
 cell ar
 melo dy
 tre y
gre et
 sheet s
 po ss
 clean y
 cel ina
cri b
 cla ppy
 bra ke
 cro sses
op ards
as ped
or ious
mel issa
ctop us
abrac ad
g ar
b ally
v ious
 hang s
r uction
 buy s
 mir acle
per f
 knob s
 d ying
 wiz ards
 ha unted
 chatter ing
zz ling
ing u
 dream er
 marsh all
or iginal
sh irt
 echo ing
 van ishing
 bless ing
 ty ke
ror y
 plum s
 bo iled
 snugg le
 unpack ing
 gest ured
 cha os
 wh ipped
 sour ces
 dra ins
 instinct s
 w ilted
 fair ly
 sal sa
 content ment
 hoo ked
u le
 dist racted
 spl itting
 mat the
 bald y
 timid ly
am elia
 da w
 dri bble
 outs mart
 br ina
 p ang
 m mm
on ed
is her
 plun ge
 water s
 chirp s
 le opards
if i
stret ching
 aim s
no ki
 un iting
 dar rin
 stroll er
in ters
 re act
 sun k
 flood s
 stare s
ch r
 tipto es
row ave
 reward ing
 tis sues
 1 2
 gor ge
ug h
mam ma
 clum s
 stall s
 ris en
 bed side
 equ ally
ro llie
 fulf illed
soph ia
l izzie
mo sp
 bicy cles
 ba it
 po ses
 courage ous
 spl inters
gr ateful
qu incy
t ag
 th reats
 wor n
ler ious
 car ly
t una
 cere m
ec ked
s ix
ar f
 wheel ed
len ny
 sil k
 for ces
 at mosp
 perform ers
 s ons
ress er
 treet ops
 shoot er
aw w
 fr ightening
 vill ages
 every time
 atmosp here
 ball et
 ar f
miss ile
 ro le
 be x
 scar ier
 din ing
 mischievous ly
f ull
 con st
 rul ed
 vill ager
 smooth ly
 gri zz
 sting ing
su ki
 g erry
 steep er
 majest ic
r d
 merma ids
 mosquito es
 co ppers
 gold fish
e ach
mom ma
 dr unk
 pad s
 large st
de zi
g ather
 sal mon
w ine
 lun ches
 lone liness
 t ilted
en ough
 town spe
 price s
 peep ed
 dear s
o ctopus
 power less
 vict orious
f ifi
abracad abra
 any body
 run ny
 wed d
 tr udged
 strum med
k irsty
 sa pl
 p ry
 bur gers
th r
 unt angled
 thin ner
sh o
 congratul ated
 loyal ty
 mis chief
l iam
t oo
 fl ung
ra chel
 t iles
 shatter ed
 bath rob
 jug s
 stomp ing
a bbie
 protect or
 ocean s
 neare r
con ut
f un
 pol icy
perf ect
