{
  "\u0000": 0,
  "\u0001": 1,
  "\u0002": 2,
  "\u0003": 3,
  "\u0004": 4,
  "\u0005": 5,
  "\u0006": 6,
  "\u0007": 7,
  "\b": 8,
  "\t": 9,
  "\n": 10,
  "\u000b": 11,
  "\f": 12,
  "\r": 13,
  "\u000e": 14,
  "\u000f": 15,
  "\u0010": 16,
  "\u0011": 17,
  "\u0012": 18,
  "\u0013": 19,
  "\u0014": 20,
  "\u0015": 21,
  "\u0016": 22,
  "\u0017": 23,
  "\u0018": 24,
  "\u0019": 25,
  "\u001a": 26,
  "\u001b": 27,
  "\u001c": 28,
  "\u001d": 29,
  "\u001e": 30,
  "\u001f": 31,
  " ": 32,
  "!": 33,
  "!\"": 249,
  "!\",": 4579,
  "!\".": 3139,
  "!'": 4588,
  "!''": 7855,
  "!'.": 7725,
  "!’": 6176,
  "!”": 1494,
  "!”.": 6049,
  "\"": 34,
  "\"!": 8342,
  "\",": 4034,
  "\".": 1243,
  "#": 35,
  "$": 36,
  "%": 37,
  "&": 38,
  "'": 39,
  "''": 6732,
  "',": 7364,
  "'.": 4973,
  "'.\"": 6115,
  "'d": 3134,
  "'ll": 1626,
  "'m": 680,
  "'re": 1206,
  "'s": 224,
  "'t": 313,
  "'ve": 4351,
  "(": 40,
  ")": 41,
  "*": 42,
  "+": 43,
  ",": 44,
  ",\"": 445,
  ",'": 6614,
  ",’": 8498,
  ",”": 3185,
  "-": 45,
  "--": 5881,
  ".": 46,
  ".\"": 237,
  ".'": 4611,
  ".'\"": 5907,
  "..": 4269,
  "...": 5852,
  "...\"": 5110,
  ".’": 8040,
  ".”": 1426,
  "/": 47,
  "0": 48,
  "1": 49,
  "10": 5747,
  "12": 8801,
  "2": 50,
  "3": 51,
  "4": 52,
  "5": 53,
  "6": 54,
  "7": 55,
  "8": 56,
  "9": 57,
  ":": 58,
  ";": 59,
  "<": 60,
  "<cls>": 8898,
  "<mask>": 8897,
  "<pad>": 8895,
  "<sep>": 8899,
  "<unk>": 8896,
  "<|": 212,
  "=": 61,
  "==": 5424,
  "====": 6565,
  "========": 8615,
  ">": 62,
  "?": 63,
  "?!": 8098,
  "?!\"": 6214,
  "?\"": 306,
  "?\",": 5594,
  "?\".": 3099,
  "?'": 5530,
  "?,\"": 8371,
  "?”": 1941,
  "?”.": 8273,
  "@": 64,
  "A": 65,
  "B": 66,
  "C": 67,
  "D": 68,
  "E": 69,
  "F": 70,
  "G": 71,
  "H": 72,
  "I": 73,
  "J": 74,
  "K": 75,
  "L": 76,
  "M": 77,
  "N": 78,
  "O": 79,
  "P": 80,
  "Q": 81,
  "R": 82,
  "S": 83,
  "T": 84,
  "U": 85,
  "V": 86,
  "W": 87,
  "X": 88,
  "Y": 89,
  "Z": 90,
  "[": 91,
  "\\": 92,
  "]": 93,
  "^": 94,
  "_": 95,
  "`": 96,
  "a": 97,
  "aa": 8094,
  "ab": 461,
  "abbie": 6335,
  "abby": 4356,
  "abella": 5481,
  "abeth": 8235,
  "abi": 6745,
  "abigail": 5661,
  "abil": 6121,
  "abilities": 7434,
  "ability": 6937,
  "able": 841,
  "aboard": 7436,
  "about": 470,
  "above": 3772,
  "abra": 7472,
  "abrac": 8687,
  "abracad": 8735,
  "abracadabra": 8870,
  "absolutely": 8617,
  "aby": 6904,
  "ac": 1068,
  "acc": 2562,
  "acce": 2826,
  "accept": 3597,
  "accepted": 4355,
  "access": 8613,
  "accident": 2709,
  "accidentally": 3506,
  "accidently": 7733,
  "accidents": 6300,
  "accompl": 5120,
  "accomplish": 5526,
  "accomplished": 7299,
  "accomplishment": 6039,
  "ace": 485,
  "aced": 3701,
  "ach": 414,
  "ache": 3262,
  "ached": 1029,
  "aches": 3422,
  "achie": 5069,
  "achieve": 5735,
  "achieved": 7059,
  "achieving": 8672,
  "achoo": 5151,
  "acht": 2986,
  "acing": 7023,
  "ack": 576,
  "acked": 4639,
  "acle": 6787,
  "acles": 6307,
  "acorn": 2395,
  "acorns": 4432,
  "across": 1821,
  "act": 1800,
  "acted": 4225,
  "acting": 4960,
  "action": 6204,
  "actions": 4978,
  "activ": 4836,
  "active": 5908,
  "activities": 5278,
  "activity": 6503,
  "actly": 5201,
  "acts": 6620,
  "actually": 4975,
  "aculous": 8553,
  "ad": 264,
  "adam": 5880,
  "add": 2451,
  "added": 3117,
  "adding": 5710,
  "address": 7317,
  "addresses": 8157,
  "adds": 7833,
  "ade": 1576,
  "aded": 5154,
  "ades": 6005,
  "ading": 7063,
  "adm": 2381,
  "admir": 4654,
  "admiration": 6411,
  "admire": 3566,
  "admired": 4183,
  "admiring": 4976,
  "admit": 8624,
  "ado": 2303,
  "ador": 2896,
  "adorable": 2924,
  "adow": 1749,
  "ads": 5050,
  "adult": 6111,
  "adults": 5938,
  "advent": 919,
  "adventur": 2459,
  "adventure": 1014,
  "adventurer": 7643,
  "adventurers": 8045,
  "adventures": 1830,
  "adventurous": 2479,
  "advice": 3854,
  "ady": 661,
  "aer": 2998,
  "aero": 8148,
  "aeropl": 3051,
  "aeroplane": 3182,
  "aeroplanes": 6402,
  "af": 1124,
  "afar": 7121,
  "aff": 1966,
  "affect": 6591,
  "afford": 7278,
  "afl": 8318,
  "afloat": 8383,
  "afra": 2141,
  "afraid": 2142,
  "after": 567,
  "afterno": 3999,
  "afternoon": 4008,
  "afterwards": 5501,
  "ag": 375,
  "again": 408,
  "against": 3468,
  "age": 773,
  "aged": 3254,
  "ager": 2117,
  "ages": 3576,
  "aghetti": 2523,
  "agle": 4574,
  "ago": 4752,
  "agre": 4182,
  "agree": 3692,
  "agreed": 975,
  "agreeing": 7603,
  "agreement": 4626,
  "agrees": 5459,
  "agull": 4949,
  "ah": 4293,
  "ahead": 3552,
  "ahh": 7678,
  "ahoy": 7471,
  "aid": 3353,
  "aiden": 8234,
  "aids": 8285,
  "ail": 4778,
  "aim": 6327,
  "aimed": 5756,
  "aims": 8787,
  "ain": 309,
  "ained": 1942,
  "aint": 8011,
  "air": 878,
  "airpl": 4846,
  "airplane": 5094,
  "airplanes": 7248,
  "airport": 3658,
  "airs": 2226,
  "ais": 6653,
  "aisle": 6922,
  "ak": 741,
  "ake": 1042,
  "aked": 3319,
  "aker": 8059,
  "aking": 2409,
  "aky": 3441,
  "al": 254,
  "alarm": 3266,
  "alb": 7515,
  "albert": 6563,
  "album": 7517,
  "ale": 1610,
  "alert": 2839,
  "ales": 4750,
  "alex": 4198,
  "alfie": 8481,
  "ali": 7220,
  "alice": 3752,
  "alie": 8064,
  "alien": 4840,
  "aliens": 7922,
  "aling": 8706,
  "alisa": 8701,
  "ality": 8109,
  "alive": 3569,
  "alk": 2355,
  "all": 253,
  "allen": 4547,
  "alley": 3904,
  "alligator": 2669,
  "alligators": 8081,
  "allow": 4173,
  "allowed": 3521,
  "allowing": 6516,
  "ally": 611,
  "alm": 1789,
  "almost": 2677,
  "alone": 1227,
  "along": 1863,
  "alongside": 8131,
  "aloud": 5788,
  "alous": 2369,
  "alph": 5654,
  "already": 3326,
  "alright": 4483,
  "als": 2384,
  "also": 817,
  "although": 5556,
  "alvin": 8521,
  "always": 508,
  "aly": 6804,
  "alyssa": 7168,
  "am": 167,
  "ama": 1057,
  "aman": 7390,
  "amand": 7367,
  "amanda": 6792,
  "amaz": 1060,
  "amazed": 1669,
  "amazement": 4562,
  "amazing": 1424,
  "amb": 3002,
  "amber": 3714,
  "ambled": 7763,
  "ambulance": 3050,
  "ame": 277,
  "amed": 1887,
  "amelia": 8775,
  "ames": 1125,
  "amie": 7621,
  "amil": 6024,
  "amiliar": 6064,
  "amon": 7871,
  "amond": 2512,
  "among": 5842,
  "amongst": 7425,
  "amount": 6081,
  "amp": 1239,
  "ampi": 8336,
  "ample": 7876,
  "ampoline": 5669,
  "amps": 7228,
  "amused": 6707,
  "amy": 586,
  "an": 156,
  "ana": 4072,
  "anage": 8225,
  "anation": 8128,
  "anc": 2237,
  "ance": 1351,
  "anced": 6494,
  "ancelot": 8078,
  "ances": 6664,
  "anch": 3028,
  "anchor": 3039,
  "ancient": 2238,
  "and": 132,
  "andar": 8409,
  "andy": 2227,
  "ane": 754,
  "aned": 5943,
  "anes": 5586,
  "anet": 7537,
  "ang": 1289,
  "ange": 867,
  "anged": 2546,
  "angel": 2866,
  "angela": 6483,
  "angels": 5785,
  "anger": 2928,
  "angers": 4621,
  "anges": 4096,
  "anging": 4989,
  "angle": 2481,
  "angled": 5451,
  "angles": 7001,
  "angri": 5884,
  "angrier": 7014,
  "angrily": 6997,
  "angry": 778,
  "angu": 3448,
  "anie": 5343,
  "animal": 551,
  "animals": 582,
  "ank": 446,
  "ann": 1791,
  "anna": 651,
  "annabel": 7505,
  "annabelle": 7138,
  "anne": 5625,
  "annie": 4857,
  "anno": 5227,
  "announced": 6985,
  "annoyed": 5864,
  "annoying": 6624,
  "anny": 4866,
  "another": 1049,
  "ans": 6318,
  "ansform": 7262,
  "answ": 1614,
  "answer": 2230,
  "answered": 2765,
  "answering": 6879,
  "answers": 4740,
  "ant": 555,
  "anted": 7970,
  "antha": 6564,
  "antic": 6588,
  "anticip": 6615,
  "anticipation": 6727,
  "antly": 4694,
  "ants": 2136,
  "anut": 2848,
  "anxious": 2514,
  "any": 483,
  "anybody": 8871,
  "anymore": 637,
  "anyone": 1877,
  "anything": 1213,
  "anytime": 5206,
  "anyway": 3680,
  "anywhere": 3869,
  "ap": 525,
  "apart": 4217,
  "aphne": 8101,
  "apolog": 3860,
  "apologised": 6145,
  "apologize": 5160,
  "apologized": 4680,
  "apology": 8584,
  "apot": 6281,
  "app": 730,
  "appear": 4361,
  "appeared": 2042,
  "apped": 3282,
  "appet": 8343,
  "apping": 5058,
  "appl": 7347,
  "applau": 3901,
  "applaud": 4488,
  "applauded": 5147,
  "applauding": 7106,
  "applause": 7770,
  "apple": 843,
  "apples": 1537,
  "apprec": 4596,
  "appreci": 4598,
  "appreciate": 5043,
  "appreciated": 8097,
  "appreciation": 6763,
  "appro": 4521,
  "approach": 7245,
  "approached": 4748,
  "apr": 3355,
  "apron": 3456,
  "aprons": 7350,
  "aquar": 7196,
  "aquarium": 7197,
  "ar": 144,
  "ara": 986,
  "ard": 297,
  "arden": 693,
  "ardo": 7166,
  "ards": 1342,
  "are": 311,
  "area": 4872,
  "ared": 364,
  "aren": 5966,
  "arf": 8822,
  "arg": 3376,
  "argu": 5257,
  "argue": 3950,
  "argued": 4842,
  "arguing": 5261,
  "argument": 8354,
  "ari": 4153,
  "arian": 3603,
  "aring": 1002,
  "ark": 298,
  "arm": 1297,
  "armchair": 3807,
  "armen": 8176,
  "arms": 2029,
  "arn": 2592,
  "arom": 8484,
  "aroma": 8490,
  "aroo": 3462,
  "around": 429,
  "arp": 1601,
  "arr": 7022,
  "arrest": 8138,
  "arrested": 8683,
  "arri": 1586,
  "arrive": 5269,
  "arrived": 1657,
  "arrives": 6236,
  "arrow": 2484,
  "arrows": 5581,
  "arrr": 7477,
  "art": 1250,
  "arthur": 7144,
  "artist": 6820,
  "ary": 787,
  "arya": 6993,
  "as": 272,
  "asant": 7547,
  "ase": 624,
  "ased": 1517,
  "aser": 2106,
  "asers": 6319,
  "ash": 1102,
  "ashamed": 2081,
  "ashed": 5237,
  "ashes": 5947,
  "ashion": 4623,
  "ashtray": 3672,
  "aside": 5545,
  "asing": 3446,
  "asis": 3996,
  "ask": 923,
  "asked": 362,
  "asking": 2391,
  "asks": 1504,
  "asleep": 2345,
  "ason": 5476,
  "asped": 8732,
  "ass": 1100,
  "asses": 2393,
  "ast": 1418,
  "aste": 1397,
  "aster": 5158,
  "astic": 3600,
  "aston": 7660,
  "astonished": 8184,
  "astron": 5890,
  "astronaut": 5893,
  "astronauts": 7131,
  "asure": 1258,
  "at": 151,
  "atch": 3133,
  "atched": 4224,
  "atches": 5437,
  "ate": 592,
  "ated": 1394,
  "ateful": 1829,
  "ately": 3196,
  "atelyn": 7863,
  "ater": 1081,
  "ates": 3033,
  "atest": 8478,
  "ath": 915,
  "atha": 8597,
  "athan": 6684,
  "ather": 1121,
  "atie": 4363,
  "atient": 2921,
  "ating": 3122,
  "ation": 1194,
  "ations": 3893,
  "atitude": 6742,
  "atmosp": 8826,
  "atmosphere": 8836,
  "ato": 1478,
  "ator": 1588,
  "ats": 3078,
  "att": 1449,
  "attach": 3431,
  "attached": 4334,
  "attaching": 8646,
  "attack": 7127,
  "attacked": 8252,
  "attemp": 7342,
  "attend": 7076,
  "attendant": 7804,
  "attention": 4377,
  "atter": 2374,
  "attic": 2590,
  "attitude": 7888,
  "attract": 2712,
  "attractive": 2727,
  "atul": 7101,
  "ature": 3494,
  "aty": 7202,
  "au": 479,
  "aud": 5352,
  "audience": 6013,
  "audrey": 6733,
  "aunt": 2331,
  "auntie": 6283,
  "aur": 2049,
  "aurora": 8422,
  "ause": 493,
  "aused": 4331,
  "aut": 2737,
  "automobile": 2748,
  "automobiles": 5987,
  "av": 1096,
  "ava": 2687,
  "available": 3286,
  "ave": 425,
  "aved": 4649,
  "aven": 2513,
  "avi": 5211,
  "avid": 6014,
  "aving": 3226,
  "avo": 5480,
  "avoc": 2628,
  "avocad": 4828,
  "avocado": 2990,
  "avocados": 4829,
  "avoid": 5583,
  "avoiding": 8540,
  "avy": 1168,
  "aw": 2394,
  "awake": 5010,
  "aware": 6559,
  "away": 392,
  "awe": 4787,
  "awesome": 4980,
  "awful": 7112,
  "awoke": 8231,
  "aww": 8832,
  "ax": 3219,
  "axe": 3293,
  "axes": 8440,
  "ay": 137,
  "aya": 6652,
  "aybe": 864,
  "aye": 5595,
  "aylor": 7915,
  "az": 3058,
  "b": 98,
  "ba": 202,
  "baa": 5830,
  "bab": 4491,
  "babies": 4496,
  "bably": 6393,
  "baby": 1095,
  "back": 333,
  "backed": 5924,
  "background": 8112,
  "backpack": 4459,
  "backpacks": 5705,
  "backs": 6213,
  "backward": 5150,
  "backwards": 5498,
  "backyard": 2063,
  "bad": 659,
  "badge": 5862,
  "badly": 4124,
  "bag": 987,
  "bage": 6574,
  "bags": 3300,
  "bailey": 8423,
  "bait": 8812,
  "bak": 4289,
  "bake": 2171,
  "baked": 4454,
  "baker": 5123,
  "bakery": 4921,
  "baking": 3969,
  "bal": 2082,
  "balan": 4196,
  "balance": 2446,
  "balanced": 5099,
  "balancing": 4823,
  "bald": 2276,
  "baldy": 8773,
  "ball": 295,
  "ballet": 8837,
  "ballie": 7253,
  "balloon": 1211,
  "balloons": 2620,
  "balls": 1553,
  "bally": 5953,
  "baloo": 8561,
  "bam": 7272,
  "bamboo": 7655,
  "ban": 1759,
  "banan": 1792,
  "banana": 2296,
  "bananas": 3092,
  "band": 1575,
  "bandage": 3245,
  "bandages": 6093,
  "bands": 7872,
  "bang": 4308,
  "banged": 6181,
  "banging": 7602,
  "bank": 5241,
  "bar": 999,
  "barber": 2555,
  "bare": 4982,
  "barely": 5209,
  "bark": 1871,
  "barked": 1454,
  "barking": 3707,
  "barks": 3941,
  "barky": 7286,
  "barn": 2271,
  "barra": 2145,
  "barrass": 2146,
  "barrel": 3059,
  "barry": 5315,
  "bars": 5730,
  "bas": 8580,
  "base": 2883,
  "baseball": 3233,
  "basement": 5467,
  "bask": 1506,
  "basket": 1508,
  "basketball": 3220,
  "baskets": 6691,
  "bat": 1542,
  "bath": 1456,
  "bathe": 3503,
  "bathed": 6586,
  "bathing": 5563,
  "bathrob": 8887,
  "bathrobe": 3539,
  "bathroom": 2560,
  "baths": 5701,
  "bathtub": 3314,
  "batter": 2636,
  "batteries": 5518,
  "battery": 3325,
  "battle": 6740,
  "bb": 540,
  "bbed": 1054,
  "bber": 2911,
  "bbers": 6961,
  "bbie": 6827,
  "bbing": 4984,
  "bbit": 783,
  "bble": 1283,
  "bbled": 4714,
  "bbles": 5605,
  "bbling": 6505,
  "bbly": 5191,
  "bby": 1981,
  "be": 164,
  "bea": 675,
  "beach": 1324,
  "beads": 5083,
  "beak": 1787,
  "beaks": 7684,
  "beam": 5683,
  "beamed": 4811,
  "beaming": 6777,
  "bean": 2225,
  "beans": 4021,
  "beanstalk": 6581,
  "bear": 597,
  "beard": 4641,
  "bears": 4145,
  "beast": 6600,
  "beat": 4726,
  "beating": 7498,
  "beaut": 740,
  "beauti": 750,
  "beautiful": 752,
  "beautifully": 7625,
  "beauty": 4237,
  "beaver": 6419,
  "bec": 341,
  "became": 494,
  "because": 505,
  "becca": 7534,
  "becky": 7302,
  "become": 2361,
  "becomes": 6184,
  "becoming": 5183,
  "bed": 810,
  "bedding": 8594,
  "bedroom": 2862,
  "beds": 4553,
  "bedside": 8807,
  "bedtime": 4996,
  "bee": 1220,
  "beebee": 7160,
  "beef": 3400,
  "beehive": 6341,
  "been": 1127,
  "beep": 3396,
  "beeped": 6382,
  "beeping": 8298,
  "beeps": 7522,
  "beepy": 6924,
  "bees": 2575,
  "beet": 3633,
  "beetle": 3706,
  "beetles": 8111,
  "before": 818,
  "beg": 4067,
  "began": 957,
  "begged": 4715,
  "begin": 5636,
  "beginning": 6264,
  "begun": 7777,
  "beh": 898,
  "beha": 8645,
  "behave": 2506,
  "behaved": 4688,
  "behavi": 5234,
  "behaving": 5307,
  "behavior": 6237,
  "behaviour": 6118,
  "behind": 1028,
  "being": 768,
  "bel": 961,
  "belie": 1471,
  "belief": 8674,
  "believe": 1632,
  "believed": 3826,
  "believing": 7951,
  "bell": 1629,
  "bella": 1623,
  "belle": 5745,
  "bellies": 6325,
  "bells": 5356,
  "belly": 5328,
  "belong": 1612,
  "belonged": 2740,
  "belongings": 6415,
  "belongs": 3718,
  "beloved": 6633,
  "below": 4010,
  "belt": 2697,
  "belts": 6158,
  "ben": 359,
  "bench": 1621,
  "benches": 7968,
  "bend": 3990,
  "bending": 8046,
  "bends": 6870,
  "bendy": 7042,
  "beneath": 4702,
  "benjamin": 7873,
  "benji": 6909,
  "benny": 2000,
  "bent": 3425,
  "ber": 646,
  "berries": 2497,
  "berry": 2208,
  "bers": 2696,
  "bert": 4443,
  "beside": 4951,
  "bess": 3415,
  "bessie": 3508,
  "bessy": 7251,
  "best": 491,
  "bet": 587,
  "beth": 5755,
  "bethany": 7999,
  "betsy": 5220,
  "better": 617,
  "betty": 3677,
  "betwe": 4115,
  "between": 4121,
  "bex": 8839,
  "bey": 4713,
  "beyond": 5461,
  "bi": 6273,
  "bibo": 7056,
  "bicy": 3363,
  "bicycle": 3401,
  "bicycles": 8811,
  "bidden": 8686,
  "bie": 5510,
  "big": 192,
  "bigail": 6865,
  "bigger": 1164,
  "biggest": 2913,
  "biggie": 5549,
  "bike": 1336,
  "bikes": 3152,
  "biko": 8518,
  "bil": 6857,
  "bill": 2292,
  "billboard": 3719,
  "bills": 7142,
  "billy": 1414,
  "bin": 2707,
  "binky": 3964,
  "binoculars": 8563,
  "bir": 244,
  "bird": 250,
  "birdc": 3118,
  "birdcage": 3131,
  "birdhouse": 6688,
  "birdie": 5131,
  "birds": 851,
  "birdse": 6370,
  "birdseed": 6466,
  "birdy": 3234,
  "birth": 1559,
  "birthday": 1561,
  "bit": 1131,
  "bite": 1402,
  "bites": 4506,
  "biting": 5319,
  "bits": 6621,
  "bitten": 6501,
  "bitter": 2311,
  "bl": 418,
  "bla": 8475,
  "black": 1350,
  "blackboard": 3385,
  "blade": 7002,
  "blades": 6889,
  "blake": 7567,
  "blank": 1502,
  "blanket": 1513,
  "blankets": 4370,
  "blast": 6414,
  "ble": 424,
  "bled": 1819,
  "bleed": 4510,
  "bleeding": 4958,
  "bleeds": 8654,
  "bless": 6813,
  "blessing": 8752,
  "blew": 1154,
  "blin": 3403,
  "bling": 7246,
  "blink": 4174,
  "blinked": 3604,
  "blinking": 6011,
  "blinks": 8499,
  "blo": 861,
  "blob": 7333,
  "block": 2403,
  "blocked": 6540,
  "blocking": 5306,
  "blocks": 1056,
  "blonde": 7829,
  "blood": 4216,
  "bloom": 2376,
  "bloomed": 5038,
  "blooming": 5096,
  "blooms": 7047,
  "blouse": 3460,
  "blow": 2240,
  "blower": 8334,
  "blowing": 3914,
  "blown": 5691,
  "blows": 5088,
  "blue": 608,
  "blueberries": 3945,
  "blueberry": 3708,
  "bluebird": 7258,
  "bluey": 6105,
  "blur": 7000,
  "blushed": 7435,
  "bly": 5825,
  "bo": 221,
  "board": 1462,
  "boards": 6595,
  "boat": 737,
  "boats": 2769,
  "bob": 506,
  "bobb": 7897,
  "bobba": 6678,
  "bobbie": 6996,
  "bobbing": 7989,
  "bobby": 2138,
  "bobo": 1090,
  "bodies": 5473,
  "body": 2488,
  "boil": 7239,
  "boiled": 8755,
  "boiling": 8352,
  "bol": 3470,
  "bold": 8629,
  "bolly": 7396,
  "bolt": 7041,
  "bomb": 6416,
  "bon": 6475,
  "bond": 8261,
  "bone": 1527,
  "bones": 4249,
  "bonnie": 7411,
  "boo": 4197,
  "book": 684,
  "bookcase": 3762,
  "booker": 7033,
  "books": 1253,
  "bookshe": 3321,
  "bookshelf": 3323,
  "boom": 4653,
  "boomed": 8717,
  "boot": 1917,
  "booth": 7475,
  "boots": 3685,
  "bop": 4374,
  "bor": 1346,
  "bored": 2344,
  "boring": 2202,
  "born": 7311,
  "borrow": 2692,
  "borrowed": 6193,
  "borrowing": 7972,
  "boss": 1781,
  "bossy": 1984,
  "bot": 1203,
  "both": 510,
  "bother": 4161,
  "bothered": 6313,
  "bothering": 6289,
  "bottle": 1340,
  "bottles": 6110,
  "bottom": 2638,
  "bou": 6728,
  "bought": 1834,
  "boun": 1262,
  "bounce": 1707,
  "bounced": 2874,
  "bounces": 5350,
  "bouncing": 3940,
  "bouncy": 3638,
  "bound": 6825,
  "bounded": 7667,
  "bouqu": 6738,
  "bouquet": 6746,
  "bow": 1484,
  "bowed": 4686,
  "bowl": 1367,
  "bowls": 5216,
  "bows": 6091,
  "box": 430,
  "boxes": 2741,
  "boy": 316,
  "boys": 2594,
  "br": 377,
  "bra": 734,
  "bracelet": 2498,
  "bracelets": 5453,
  "brad": 6163,
  "brain": 4517,
  "brake": 8729,
  "brakes": 7611,
  "bran": 1150,
  "branch": 1331,
  "branches": 2254,
  "brand": 5329,
  "brant": 6885,
  "brave": 800,
  "bravely": 4684,
  "braver": 6544,
  "bravery": 5509,
  "bravest": 6594,
  "bre": 860,
  "bread": 1640,
  "break": 1307,
  "breakfast": 3606,
  "breaking": 4458,
  "breaks": 3882,
  "breat": 3716,
  "breath": 2318,
  "breathe": 4156,
  "breathed": 5921,
  "breathing": 6280,
  "breaths": 8555,
  "bree": 3776,
  "breeze": 4543,
  "breezy": 6878,
  "bri": 1765,
  "brian": 5678,
  "bric": 5338,
  "brick": 3568,
  "bricks": 4130,
  "brid": 4692,
  "bride": 8524,
  "bridge": 2165,
  "bridges": 4730,
  "bright": 950,
  "brighte": 6189,
  "brighter": 4038,
  "brightest": 6474,
  "brightly": 3816,
  "brill": 2593,
  "brilliant": 2603,
  "brina": 7341,
  "bring": 1581,
  "bringing": 5079,
  "brings": 4274,
  "bris": 8694,
  "bro": 6610,
  "broccoli": 3812,
  "broke": 759,
  "broken": 1034,
  "broom": 4791,
  "brother": 1230,
  "brothers": 3249,
  "brought": 1291,
  "brown": 1205,
  "brownie": 5402,
  "brrr": 7384,
  "bru": 1815,
  "bruised": 8641,
  "bruises": 6320,
  "brun": 6061,
  "bruno": 6063,
  "brus": 4502,
  "brush": 1985,
  "brushed": 4763,
  "brushes": 4815,
  "brushing": 6026,
  "bs": 7057,
  "bt": 8569,
  "bu": 436,
  "bubble": 1690,
  "bubbles": 2193,
  "bubbling": 8324,
  "bubbly": 7476,
  "bubu": 8517,
  "buck": 3132,
  "bucket": 1641,
  "buckets": 4897,
  "buckle": 3404,
  "buckled": 8187,
  "buckles": 8250,
  "bucky": 6641,
  "bud": 6808,
  "buddy": 1276,
  "budge": 6634,
  "bug": 636,
  "buggy": 5198,
  "bugs": 1750,
  "build": 1139,
  "building": 1998,
  "buildings": 4728,
  "built": 2640,
  "bul": 2387,
  "bulb": 2397,
  "bulbs": 7009,
  "bull": 3055,
  "bullies": 8284,
  "bully": 6337,
  "bump": 3163,
  "bumped": 4007,
  "bumping": 7566,
  "bumps": 5787,
  "bumpy": 5193,
  "bun": 5809,
  "bunch": 5677,
  "bundles": 7201,
  "bunnies": 5940,
  "bunny": 765,
  "bur": 2126,
  "burgers": 8878,
  "buried": 4099,
  "burn": 3255,
  "burned": 3983,
  "burning": 4722,
  "burns": 5630,
  "burrow": 7404,
  "burst": 6666,
  "bury": 3356,
  "burying": 7145,
  "bus": 1113,
  "buses": 6034,
  "bush": 1592,
  "bushes": 3086,
  "bushy": 7542,
  "business": 8137,
  "bussy": 6964,
  "busy": 1654,
  "but": 209,
  "butch": 8693,
  "butter": 1063,
  "butterf": 1177,
  "butterflies": 3793,
  "butterfly": 1252,
  "button": 1279,
  "buttons": 3046,
  "buy": 1136,
  "buying": 5931,
  "buys": 8739,
  "buzz": 2533,
  "buzzed": 5409,
  "buzzes": 8718,
  "buzzing": 5226,
  "buzzy": 3538,
  "by": 588,
  "bye": 979,
  "c": 99,
  "ca": 305,
  "cab": 2743,
  "cabin": 2762,
  "cabinet": 3648,
  "cable": 3130,
  "cables": 6723,
  "cact": 2923,
  "cactus": 2939,
  "caf": 8044,
  "cafe": 6602,
  "cage": 2040,
  "cages": 8345,
  "cake": 615,
  "cakes": 4168,
  "cal": 5101,
  "calend": 3838,
  "calendar": 3845,
  "calf": 7832,
  "call": 689,
  "called": 760,
  "calling": 3417,
  "calls": 4385,
  "cally": 6166,
  "calm": 1940,
  "calmed": 5538,
  "calmly": 7167,
  "cam": 2732,
  "came": 367,
  "camera": 2756,
  "camp": 3427,
  "campfire": 8060,
  "camping": 6090,
  "can": 286,
  "canary": 8697,
  "cand": 1208,
  "candies": 4963,
  "candle": 2865,
  "candles": 4028,
  "candy": 1448,
  "cane": 3867,
  "cannot": 1795,
  "canoe": 8658,
  "cans": 5416,
  "canvas": 7511,
  "cap": 2169,
  "cape": 4345,
  "capes": 8656,
  "capt": 3889,
  "captain": 3968,
  "capture": 8622,
  "captured": 8514,
  "car": 356,
  "cara": 6999,
  "card": 1582,
  "cardboard": 3090,
  "cardinal": 8154,
  "cards": 3726,
  "care": 486,
  "cared": 4036,
  "careful": 614,
  "carefully": 1360,
  "careless": 2664,
  "cares": 6351,
  "cari": 7909,
  "caring": 3679,
  "carl": 3956,
  "carlos": 7195,
  "carly": 8819,
  "carmen": 7222,
  "carol": 8017,
  "carp": 7337,
  "carpet": 2938,
  "carpets": 8414,
  "carried": 2104,
  "carries": 7540,
  "carrot": 1547,
  "carrots": 2428,
  "carry": 1666,
  "carrying": 3805,
  "cars": 1020,
  "cart": 1714,
  "carton": 7752,
  "cartoon": 3753,
  "cartoons": 4552,
  "carts": 5816,
  "carve": 6963,
  "carved": 7831,
  "case": 2957,
  "cash": 5974,
  "cashier": 6123,
  "cast": 1188,
  "castle": 1270,
  "castles": 3500,
  "cat": 280,
  "catch": 836,
  "catches": 5039,
  "catching": 4347,
  "cate": 7549,
  "cater": 1946,
  "caterpillar": 1951,
  "caterpillars": 6074,
  "catnip": 7914,
  "cats": 2458,
  "catty": 4779,
  "cau": 4487,
  "caught": 1514,
  "cauli": 2904,
  "cauliflower": 2975,
  "cauliflowers": 7858,
  "cause": 5174,
  "caused": 5347,
  "causing": 6949,
  "caut": 5732,
  "cautious": 5849,
  "cautiously": 6226,
  "cave": 1777,
  "caw": 6092,
  "cc": 5989,
  "cce": 1727,
  "cco": 7075,
  "cd": 6826,
  "ce": 188,
  "cece": 8370,
  "ced": 953,
  "ceiling": 3802,
  "cel": 2960,
  "celebr": 2015,
  "celebrate": 2580,
  "celebrated": 4391,
  "celebrating": 5446,
  "celebration": 5090,
  "celery": 3070,
  "celet": 2496,
  "celia": 7171,
  "celina": 7743,
  "cell": 3520,
  "cellar": 8722,
  "cells": 6907,
  "cen": 3159,
  "cene": 7521,
  "cent": 5475,
  "center": 6358,
  "centre": 6436,
  "cer": 2601,
  "cere": 2864,
  "cereal": 2907,
  "cerem": 8820,
  "certain": 6744,
  "certainly": 8183,
  "cery": 4408,
  "ces": 5754,
  "ch": 232,
  "cha": 5973,
  "chain": 3154,
  "chains": 7608,
  "chair": 1179,
  "chairs": 3873,
  "chalk": 2909,
  "chalks": 8241,
  "challen": 4548,
  "challenge": 4734,
  "challenges": 7772,
  "chamber": 3771,
  "champ": 6047,
  "champion": 6072,
  "chan": 3681,
  "chance": 3959,
  "change": 1841,
  "changed": 2605,
  "changes": 6448,
  "changing": 5192,
  "chant": 7340,
  "chantelle": 7580,
  "chaos": 8759,
  "char": 2334,
  "chara": 5967,
  "charac": 5993,
  "character": 7898,
  "characters": 6508,
  "chard": 7492,
  "charge": 7156,
  "charity": 8173,
  "charlie": 4292,
  "charming": 2964,
  "chase": 2139,
  "chased": 1882,
  "chases": 5394,
  "chasing": 3586,
  "chat": 5659,
  "chatted": 7458,
  "chatter": 7054,
  "chattering": 8745,
  "che": 663,
  "cheap": 2337,
  "cheaper": 6469,
  "cheat": 6681,
  "cheated": 7690,
  "check": 3515,
  "checked": 4086,
  "checking": 7331,
  "checkmate": 8349,
  "checkout": 7839,
  "ched": 562,
  "chee": 1583,
  "cheek": 4085,
  "cheeks": 5633,
  "cheer": 1928,
  "cheered": 1658,
  "cheerful": 2621,
  "cheering": 4895,
  "cheers": 6083,
  "cheese": 1720,
  "cheesy": 8400,
  "cheet": 7551,
  "cheetah": 7705,
  "chef": 4830,
  "chefs": 5573,
  "chel": 6113,
  "cher": 2019,
  "cherish": 7117,
  "cherished": 7936,
  "cherries": 2910,
  "cherry": 3284,
  "ches": 1450,
  "chess": 2407,
  "chest": 2452,
  "chew": 1732,
  "chewed": 3935,
  "chewing": 4535,
  "chews": 6970,
  "chewy": 5937,
  "chick": 4266,
  "chicken": 1996,
  "chickens": 3883,
  "chicky": 4937,
  "chie": 4656,
  "chief": 8445,
  "child": 1159,
  "children": 1399,
  "chill": 7438,
  "chilly": 7668,
  "chimney": 3700,
  "chin": 7530,
  "ching": 6853,
  "chip": 6114,
  "chips": 5277,
  "chirp": 1738,
  "chirped": 4879,
  "chirping": 5340,
  "chirps": 8784,
  "chirpy": 1956,
  "chloe": 5168,
  "cho": 1603,
  "chocol": 2248,
  "chocolate": 2284,
  "chocolates": 7509,
  "choice": 3866,
  "choices": 5311,
  "choo": 5471,
  "chool": 1479,
  "choose": 2615,
  "chooses": 8411,
  "choosing": 6697,
  "chop": 5415,
  "chopped": 7781,
  "chopping": 7669,
  "chores": 3982,
  "chose": 3405,
  "chosen": 6154,
  "chr": 6205,
  "chris": 7150,
  "christmas": 8119,
  "chu": 2795,
  "chubby": 2800,
  "chuck": 5029,
  "chuckled": 5640,
  "chug": 6476,
  "chugged": 8170,
  "chugger": 7911,
  "church": 3275,
  "chy": 6471,
  "cici": 6576,
  "cie": 5827,
  "cies": 8239,
  "cindy": 4865,
  "cing": 1548,
  "cinnamon": 7893,
  "cir": 1703,
  "circle": 2052,
  "circled": 7734,
  "circles": 3592,
  "circus": 6028,
  "cited": 8579,
  "cities": 7824,
  "city": 2888,
  "ck": 195,
  "cked": 993,
  "cker": 7409,
  "cket": 1082,
  "ckless": 6800,
  "cks": 786,
  "cky": 5027,
  "cl": 324,
  "cla": 1080,
  "claire": 6345,
  "clam": 7631,
  "clap": 2306,
  "clapped": 1200,
  "clapping": 4066,
  "clappy": 8728,
  "claps": 4911,
  "clara": 4426,
  "class": 2064,
  "classmates": 6510,
  "classroom": 3727,
  "claw": 3921,
  "claws": 4055,
  "clay": 2157,
  "cle": 568,
  "clean": 632,
  "cleaned": 2027,
  "cleaner": 6275,
  "cleaning": 2652,
  "cleans": 8169,
  "cleany": 8727,
  "clear": 2371,
  "cleared": 6642,
  "clearing": 4625,
  "clearly": 8573,
  "cled": 7637,
  "clerk": 6780,
  "cles": 2786,
  "clever": 1895,
  "click": 5186,
  "clicked": 6400,
  "cliff": 3799,
  "climb": 669,
  "climbed": 1050,
  "climbing": 3206,
  "climbs": 4162,
  "clip": 7211,
  "clive": 7143,
  "clo": 580,
  "cloak": 8307,
  "clock": 2199,
  "clos": 914,
  "close": 1093,
  "closed": 1439,
  "closely": 4380,
  "closer": 1026,
  "closes": 5616,
  "closet": 2215,
  "closing": 6841,
  "clot": 1266,
  "cloth": 1764,
  "clothes": 1268,
  "cloths": 6781,
  "cloud": 1141,
  "clouds": 1930,
  "cloudy": 6858,
  "clover": 7266,
  "clown": 2438,
  "clowns": 5720,
  "club": 2798,
  "cluck": 7715,
  "clue": 6603,
  "clues": 6495,
  "clum": 2421,
  "clums": 8804,
  "clumsy": 2433,
  "clut": 7036,
  "clutched": 8200,
  "clutching": 8321,
  "co": 396,
  "coach": 6332,
  "coal": 3127,
  "coat": 1551,
  "coats": 4022,
  "cob": 3161,
  "cobra": 7729,
  "cobweb": 3305,
  "cobwebs": 5869,
  "cocked": 7862,
  "coco": 2327,
  "cocoa": 2799,
  "cocoon": 5272,
  "coffe": 2690,
  "coffee": 2698,
  "coiled": 7930,
  "coin": 1643,
  "coins": 3171,
  "col": 658,
  "cold": 931,
  "colder": 6112,
  "coldness": 8496,
  "coll": 1683,
  "collap": 6837,
  "collapsed": 7474,
  "collar": 3187,
  "collars": 8049,
  "collect": 2526,
  "collected": 4729,
  "collecting": 4705,
  "collection": 4457,
  "collects": 8538,
  "color": 692,
  "colored": 6035,
  "colorful": 1174,
  "coloring": 7100,
  "colors": 1022,
  "colour": 2609,
  "coloured": 6217,
  "colourful": 3891,
  "colouring": 8196,
  "colours": 4349,
  "com": 641,
  "comb": 2404,
  "combed": 5878,
  "combing": 7115,
  "come": 623,
  "comes": 1842,
  "comet": 3172,
  "comets": 8529,
  "comf": 4323,
  "comfort": 3675,
  "comfortable": 2444,
  "comforted": 5552,
  "comforting": 6793,
  "comfy": 4770,
  "coming": 1147,
  "comm": 5297,
  "command": 8399,
  "common": 6545,
  "commotion": 8405,
  "commun": 6605,
  "communicate": 7531,
  "community": 8443,
  "comp": 1498,
  "compan": 7620,
  "companion": 7683,
  "company": 5018,
  "compass": 2961,
  "compassion": 2980,
  "compassionate": 3054,
  "compet": 2646,
  "compete": 6919,
  "competing": 8009,
  "competit": 2781,
  "competition": 5557,
  "competitive": 3000,
  "compl": 2713,
  "complain": 2994,
  "complained": 5285,
  "complaining": 4939,
  "comple": 2963,
  "complet": 7673,
  "complete": 3278,
  "completed": 5304,
  "completely": 5463,
  "completing": 7778,
  "complicated": 8581,
  "compromise": 8279,
  "comput": 3096,
  "computer": 3193,
  "computers": 7118,
  "con": 946,
  "conce": 7019,
  "concent": 7767,
  "concentrated": 7796,
  "concer": 6659,
  "concerned": 6911,
  "cond": 4101,
  "condition": 7755,
  "conductor": 7139,
  "cone": 2283,
  "cones": 5106,
  "conf": 5116,
  "confidence": 7357,
  "confident": 5504,
  "confidently": 7955,
  "confl": 5127,
  "conflict": 5159,
  "confused": 1847,
  "congr": 6836,
  "congratul": 7352,
  "congratulated": 8881,
  "conn": 5360,
  "connect": 8136,
  "connected": 6244,
  "connor": 7889,
  "conqu": 7645,
  "conquered": 8578,
  "cons": 6328,
  "consequence": 5674,
  "consequences": 5731,
  "consid": 6484,
  "considerate": 7896,
  "const": 8843,
  "cont": 1317,
  "contain": 5036,
  "container": 7177,
  "conte": 7988,
  "content": 3993,
  "contented": 8436,
  "contentment": 8767,
  "contents": 7994,
  "contest": 5025,
  "contin": 1364,
  "continue": 4941,
  "continued": 1404,
  "continuing": 7574,
  "contro": 5477,
  "control": 5676,
  "conut": 8893,
  "convers": 7644,
  "conversation": 7813,
  "convin": 6429,
  "convince": 7975,
  "convinced": 6676,
  "coo": 2017,
  "cooed": 7487,
  "cook": 831,
  "cooked": 2858,
  "cookie": 1579,
  "cookies": 1256,
  "cooking": 3371,
  "cool": 1107,
  "coole": 7798,
  "cooled": 8456,
  "cooler": 3297,
  "coolest": 7964,
  "coolness": 7803,
  "coon": 4590,
  "coop": 7907,
  "cooperate": 8488,
  "cop": 2411,
  "cope": 6321,
  "copied": 7256,
  "copper": 3593,
  "coppers": 8855,
  "cops": 6520,
  "copy": 4785,
  "cor": 5684,
  "cord": 3542,
  "corn": 1515,
  "corner": 2245,
  "corners": 5458,
  "corns": 6699,
  "correct": 6136,
  "correctly": 6378,
  "cory": 7318,
  "cost": 2500,
  "costs": 7852,
  "costume": 3158,
  "costumes": 4577,
  "cosy": 6285,
  "cot": 5709,
  "cottage": 6916,
  "cotton": 6662,
  "couch": 2073,
  "coug": 6497,
  "cough": 4904,
  "coughed": 7252,
  "coughing": 8596,
  "could": 291,
  "couldn": 785,
  "count": 1190,
  "counted": 2635,
  "counter": 4131,
  "counting": 2973,
  "country": 3750,
  "countryside": 5873,
  "counts": 5553,
  "couple": 7666,
  "cour": 1562,
  "courage": 3764,
  "couraged": 7285,
  "courageous": 8814,
  "course": 1571,
  "court": 8605,
  "cous": 5213,
  "cousin": 5704,
  "cousins": 6926,
  "cover": 1710,
  "covered": 2322,
  "covering": 7037,
  "covers": 5219,
  "cow": 1359,
  "cowboy": 7750,
  "cowboys": 7664,
  "cows": 3665,
  "cowy": 7711,
  "cozy": 1919,
  "cr": 1584,
  "cra": 844,
  "crab": 1421,
  "crabby": 6410,
  "crabs": 4725,
  "crack": 2545,
  "cracked": 5208,
  "cracker": 6306,
  "crackers": 6239,
  "crackle": 8267,
  "cracks": 7904,
  "craft": 6301,
  "crafts": 8122,
  "crane": 3398,
  "crash": 4306,
  "crashed": 4669,
  "crashing": 7072,
  "craw": 1663,
  "crawl": 2557,
  "crawled": 2614,
  "crawling": 4475,
  "crawls": 8362,
  "cray": 1546,
  "crayon": 2524,
  "crayons": 2020,
  "crazy": 2491,
  "cre": 1271,
  "creak": 7942,
  "creaked": 8719,
  "cream": 1085,
  "creams": 5984,
  "creamy": 6925,
  "creat": 1618,
  "create": 2777,
  "created": 4833,
  "creating": 5414,
  "creation": 5000,
  "creations": 6590,
  "creative": 2176,
  "creativity": 6430,
  "creature": 2872,
  "creatures": 4460,
  "cree": 4119,
  "creek": 4125,
  "creep": 7634,
  "crept": 5052,
  "crew": 4932,
  "cri": 2090,
  "crib": 3138,
  "cricket": 3040,
  "crickets": 7032,
  "cried": 1036,
  "cries": 2717,
  "cris": 7931,
  "cro": 2341,
  "croak": 8366,
  "croaked": 6846,
  "croco": 2460,
  "crocod": 2558,
  "crocodile": 2559,
  "crocodiles": 6709,
  "crops": 8244,
  "cross": 1812,
  "crossed": 3892,
  "crosses": 8730,
  "crossing": 6309,
  "crouched": 7744,
  "crow": 4890,
  "crowd": 6809,
  "crowded": 8036,
  "crown": 2281,
  "crowns": 6893,
  "cruel": 7358,
  "crumb": 5776,
  "crumbs": 5877,
  "crumpled": 8558,
  "crunch": 4570,
  "crunchy": 4640,
  "crushed": 7688,
  "crut": 8230,
  "crutch": 8619,
  "cry": 813,
  "crying": 1463,
  "crystal": 3214,
  "ct": 688,
  "cted": 7083,
  "ction": 7881,
  "ctop": 2726,
  "ctopus": 8734,
  "ctor": 1361,
  "ctory": 3476,
  "cture": 3013,
  "cu": 631,
  "cub": 4061,
  "cube": 3522,
  "cubes": 4780,
  "cubs": 7528,
  "cudd": 3052,
  "cuddle": 5273,
  "cuddled": 4682,
  "cuddles": 4489,
  "cuddling": 7823,
  "cuddly": 5354,
  "cup": 1186,
  "cupboard": 2787,
  "cupboards": 8292,
  "cupcake": 8041,
  "cupcakes": 6695,
  "cupine": 7516,
  "cups": 3285,
  "cur": 3661,
  "curi": 927,
  "curiosity": 5281,
  "curious": 938,
  "curiously": 5986,
  "curl": 7639,
  "curled": 4303,
  "curly": 5772,
  "curre": 7627,
  "current": 8012,
  "curt": 3124,
  "curtain": 3135,
  "curtains": 5375,
  "curve": 8669,
  "cus": 4983,
  "cuse": 5374,
  "cused": 6696,
  "cush": 2473,
  "cushion": 2730,
  "cushions": 5084,
  "custom": 5478,
  "customer": 5856,
  "customers": 7699,
  "cut": 929,
  "cute": 1539,
  "cuts": 4924,
  "cutter": 6523,
  "cutting": 4151,
  "cy": 419,
  "d": 100,
  "da": 1040,
  "dad": 467,
  "daddies": 6863,
  "daddy": 1352,
  "dads": 4695,
  "dais": 6980,
  "daisies": 6986,
  "daisy": 1254,
  "dam": 5909,
  "dama": 6551,
  "damage": 5955,
  "damaged": 6568,
  "dan": 605,
  "danc": 5703,
  "dance": 1046,
  "danced": 1306,
  "dancer": 3779,
  "dancers": 5742,
  "dances": 6482,
  "dancing": 2133,
  "dand": 7221,
  "dandel": 7226,
  "dandelion": 7571,
  "danger": 1339,
  "dangerous": 1447,
  "dangers": 6567,
  "daniel": 6366,
  "danny": 4462,
  "daphne": 8254,
  "dar": 4896,
  "dara": 5267,
  "dare": 3412,
  "dared": 4523,
  "daring": 6357,
  "dark": 985,
  "darker": 4971,
  "darkness": 5736,
  "darling": 5757,
  "darlings": 6886,
  "darrin": 8790,
  "dashed": 7365,
  "date": 6748,
  "daughter": 2102,
  "dav": 4807,
  "dave": 4307,
  "davey": 5961,
  "david": 4979,
  "davy": 7810,
  "daw": 8776,
  "day": 180,
  "daydream": 8559,
  "days": 1556,
  "dd": 413,
  "dded": 794,
  "dden": 638,
  "ddenly": 649,
  "ddie": 6894,
  "dding": 5810,
  "ddy": 1185,
  "de": 318,
  "dead": 2262,
  "deaf": 2581,
  "deal": 5205,
  "dear": 3895,
  "dears": 8867,
  "dec": 480,
  "decide": 2855,
  "decided": 520,
  "decides": 4863,
  "deciding": 8636,
  "decision": 6161,
  "decisions": 5716,
  "decl": 7441,
  "declared": 7452,
  "decor": 2172,
  "decorate": 3035,
  "decorated": 4614,
  "decorating": 5569,
  "decoration": 8331,
  "decorations": 4601,
  "ded": 3731,
  "dee": 7708,
  "deed": 6413,
  "deeds": 8463,
  "deep": 1257,
  "deeper": 4068,
  "deepest": 8442,
  "deeply": 8390,
  "deer": 2566,
  "def": 8560,
  "defe": 6839,
  "defeated": 7844,
  "definite": 6389,
  "definitely": 6405,
  "del": 1012,
  "delay": 3828,
  "delayed": 6572,
  "delaying": 7004,
  "deli": 7013,
  "delic": 1300,
  "delicate": 2647,
  "delicious": 1481,
  "delight": 2789,
  "delighted": 3927,
  "delightful": 7851,
  "deliver": 2507,
  "delivered": 4898,
  "delivering": 5232,
  "delivery": 7029,
  "demand": 4120,
  "demanded": 5077,
  "demanding": 6646,
  "demon": 7005,
  "demonst": 7087,
  "demonstrated": 7206,
  "den": 1959,
  "dent": 5465,
  "dentist": 5572,
  "dep": 7344,
  "depend": 2486,
  "dependable": 2571,
  "depths": 7929,
  "der": 1201,
  "ders": 8637,
  "des": 1706,
  "descri": 7695,
  "described": 8509,
  "deser": 4918,
  "desert": 5651,
  "deserve": 5448,
  "deserved": 7836,
  "deserves": 7748,
  "desig": 2908,
  "design": 3184,
  "designed": 5979,
  "designing": 6973,
  "designs": 6245,
  "desk": 2775,
  "desks": 7947,
  "desper": 8050,
  "desperately": 8522,
  "despite": 5697,
  "dess": 3373,
  "desser": 6714,
  "dessert": 3512,
  "desserts": 6810,
  "dest": 2156,
  "destination": 4869,
  "destroy": 2343,
  "destroyed": 4092,
  "destroying": 6387,
  "det": 7325,
  "detail": 7853,
  "details": 8212,
  "deter": 3015,
  "determ": 3047,
  "determination": 5786,
  "determined": 3265,
  "dezi": 6951,
  "dge": 1987,
  "dges": 7338,
  "di": 703,
  "dial": 7590,
  "diamond": 2517,
  "diamonds": 7561,
  "diary": 3311,
  "dictionary": 3565,
  "did": 283,
  "didi": 5866,
  "didn": 599,
  "die": 4893,
  "died": 5004,
  "dies": 5022,
  "diff": 875,
  "differe": 974,
  "difference": 4212,
  "differences": 6640,
  "different": 1011,
  "differently": 7025,
  "diffic": 2312,
  "difficult": 2316,
  "dig": 2134,
  "digger": 6882,
  "digging": 4529,
  "digs": 6854,
  "din": 1086,
  "dina": 5781,
  "ding": 4071,
  "dining": 8841,
  "dinky": 7268,
  "dinner": 1338,
  "dinners": 8188,
  "dino": 4995,
  "dinosaur": 2056,
  "dinosaurs": 4956,
  "dip": 6369,
  "dipped": 5173,
  "dips": 7288,
  "dir": 936,
  "direct": 4693,
  "direction": 5389,
  "directions": 5770,
  "dirt": 1646,
  "dirty": 1161,
  "dis": 947,
  "disag": 3558,
  "disagre": 6802,
  "disagree": 4566,
  "disagreed": 4415,
  "disagreeing": 7453,
  "disagreement": 7024,
  "disapp": 1724,
  "disappear": 3304,
  "disappeared": 3244,
  "disappearing": 7884,
  "disappears": 7152,
  "disappo": 3016,
  "disappoint": 7426,
  "disappointed": 3089,
  "disappointment": 8690,
  "disaster": 8166,
  "disco": 2209,
  "discouraged": 7433,
  "discover": 2389,
  "discovered": 3465,
  "discoveries": 7656,
  "discovering": 5335,
  "discovery": 4961,
  "discu": 3980,
  "discuss": 3991,
  "discussed": 6452,
  "discussing": 7373,
  "disg": 2241,
  "disguise": 7264,
  "disgust": 2275,
  "disgusting": 2297,
  "dish": 1851,
  "dishes": 3926,
  "dishwasher": 2997,
  "disob": 8155,
  "disobedient": 8396,
  "disobey": 6316,
  "disobeyed": 7012,
  "display": 3483,
  "displayed": 6417,
  "displaying": 8337,
  "dist": 1697,
  "distance": 3549,
  "distant": 3125,
  "distract": 8643,
  "distracted": 8770,
  "disturb": 2841,
  "disturbed": 4678,
  "disturbing": 6860,
  "ditch": 7877,
  "div": 7582,
  "dive": 2880,
  "dived": 5379,
  "dives": 7204,
  "divided": 8532,
  "diving": 5075,
  "dizziness": 6619,
  "dizzy": 2058,
  "dle": 2478,
  "do": 204,
  "dock": 8295,
  "doctor": 1557,
  "doctors": 5817,
  "dod": 5994,
  "dodge": 8096,
  "dodged": 7163,
  "dodging": 7240,
  "dodo": 4851,
  "does": 1021,
  "doesn": 3588,
  "dog": 287,
  "doggie": 7891,
  "doggy": 1904,
  "dogs": 1785,
  "doing": 1133,
  "doll": 781,
  "dollar": 5529,
  "dollars": 6686,
  "dollhouse": 5882,
  "dolls": 1491,
  "dolly": 2958,
  "dolp": 2565,
  "dolphin": 2754,
  "dolphins": 5455,
  "dom": 2783,
  "don": 603,
  "done": 1099,
  "donkey": 5847,
  "doo": 7124,
  "doomed": 8275,
  "door": 666,
  "doorbell": 6929,
  "doors": 3572,
  "doorste": 8030,
  "doorway": 6442,
  "dot": 4630,
  "dots": 5528,
  "dou": 8585,
  "dough": 2838,
  "dove": 2585,
  "down": 411,
  "downstairs": 4421,
  "dozed": 8572,
  "dr": 889,
  "dra": 729,
  "drag": 1314,
  "dragged": 5172,
  "dragon": 1337,
  "dragonfly": 5926,
  "dragons": 4736,
  "drain": 3433,
  "drains": 8762,
  "drank": 1977,
  "draw": 951,
  "drawer": 2772,
  "drawers": 7374,
  "drawing": 2424,
  "drawings": 3299,
  "drawn": 6274,
  "draws": 4633,
  "dream": 1116,
  "dreamed": 3151,
  "dreamer": 8748,
  "dreaming": 3377,
  "dreams": 2835,
  "dreamt": 6775,
  "dress": 1008,
  "dressed": 4255,
  "dresser": 6238,
  "dresses": 4412,
  "dressing": 6772,
  "drew": 2001,
  "dri": 1089,
  "dribble": 8777,
  "dried": 4375,
  "dries": 7739,
  "drift": 7231,
  "drifted": 6174,
  "drill": 7619,
  "drink": 1457,
  "drinking": 4520,
  "drinks": 4727,
  "drip": 7055,
  "dripping": 6206,
  "drive": 1790,
  "driven": 8716,
  "driver": 1704,
  "drivers": 6077,
  "drives": 5137,
  "driveway": 6549,
  "driving": 3247,
  "dro": 1180,
  "drop": 2388,
  "dropped": 1552,
  "dropping": 5479,
  "drops": 4211,
  "drove": 1809,
  "drown": 7691,
  "drowned": 8015,
  "drum": 2067,
  "drums": 5641,
  "drunk": 8857,
  "dry": 1332,
  "drying": 8214,
  "ds": 1231,
  "du": 8608,
  "dually": 8503,
  "duck": 825,
  "duckling": 6016,
  "ducks": 1816,
  "ducky": 1970,
  "duel": 8699,
  "dug": 2277,
  "dull": 2342,
  "dumb": 7802,
  "dump": 6175,
  "dumped": 7161,
  "during": 4184,
  "dust": 2934,
  "dustpan": 8047,
  "dusty": 4606,
  "dy": 733,
  "dying": 8742,
  "e": 101,
  "each": 545,
  "eager": 2147,
  "eagerly": 4209,
  "eagerness": 8210,
  "eagle": 4597,
  "ear": 928,
  "eared": 1679,
  "earlier": 4927,
  "early": 3480,
  "earn": 7944,
  "earned": 6682,
  "earr": 7271,
  "earrings": 7275,
  "ears": 3048,
  "earth": 2435,
  "earthquake": 4287,
  "eas": 1598,
  "ease": 6167,
  "easier": 4441,
  "easily": 4076,
  "east": 4707,
  "easy": 1866,
  "eat": 519,
  "eaten": 3906,
  "eath": 4701,
  "eating": 1371,
  "eats": 4831,
  "ebra": 3837,
  "ec": 303,
  "echo": 6220,
  "echoed": 7062,
  "echoing": 8750,
  "eci": 610,
  "ecially": 4213,
  "ecked": 8821,
  "ect": 983,
  "ected": 3947,
  "ecting": 4110,
  "ed": 130,
  "eddie": 6538,
  "eddy": 1309,
  "eded": 8648,
  "edge": 3064,
  "edges": 6391,
  "edient": 2305,
  "eds": 5470,
  "eduardo": 7243,
  "edy": 3931,
  "ee": 1606,
  "eed": 5894,
  "een": 5836,
  "eer": 3887,
  "eet": 2867,
  "ef": 4041,
  "eff": 4798,
  "effort": 4880,
  "efforts": 6128,
  "egg": 1410,
  "eggs": 2265,
  "eight": 5087,
  "ein": 7878,
  "either": 3105,
  "ek": 1997,
  "el": 262,
  "ela": 7061,
  "elbow": 5658,
  "elbows": 7609,
  "eld": 6824,
  "elder": 1862,
  "elderly": 1867,
  "elders": 8450,
  "eldest": 8104,
  "ele": 1328,
  "elect": 7327,
  "electric": 7717,
  "electricity": 8194,
  "elephant": 1507,
  "elephants": 4262,
  "elev": 2981,
  "elevator": 2984,
  "eleven": 8705,
  "elia": 8135,
  "elizabeth": 8556,
  "ell": 469,
  "ella": 2007,
  "elle": 4987,
  "ellie": 3608,
  "elly": 1729,
  "elope": 6755,
  "elsa": 6394,
  "else": 1395,
  "elt": 355,
  "elve": 8704,
  "em": 735,
  "embarrass": 2150,
  "embarrassed": 2434,
  "ember": 5082,
  "embra": 7293,
  "embraced": 8193,
  "ement": 3715,
  "emer": 4439,
  "emera": 8335,
  "emerald": 8466,
  "emerged": 7216,
  "emergen": 4610,
  "emergencies": 8304,
  "emergency": 4703,
  "emily": 2538,
  "emima": 8067,
  "emma": 1762,
  "emmy": 8156,
  "emon": 6975,
  "emp": 1909,
  "empty": 1915,
  "en": 230,
  "ena": 5163,
  "enc": 3142,
  "ence": 1379,
  "ench": 8207,
  "enchanted": 8255,
  "encl": 8291,
  "enclosure": 8326,
  "encount": 6446,
  "encountered": 6710,
  "encoura": 4210,
  "encourage": 4362,
  "encouraged": 4455,
  "encouragement": 6454,
  "encouraging": 6463,
  "end": 158,
  "ended": 3928,
  "ending": 2430,
  "endings": 7111,
  "endofte": 211,
  "endoftext": 214,
  "ends": 5764,
  "endy": 6070,
  "ened": 442,
  "enem": 6892,
  "enemies": 7074,
  "ener": 3709,
  "energet": 7371,
  "energetic": 7375,
  "energy": 3830,
  "eng": 6480,
  "engine": 2519,
  "engineer": 8571,
  "engines": 7628,
  "enjoy": 930,
  "enjoyable": 7235,
  "enjoyed": 1224,
  "enjoying": 3466,
  "enjoys": 7808,
  "enna": 7230,
  "enny": 3414,
  "enormous": 2267,
  "enough": 1438,
  "ens": 2010,
  "ense": 5105,
  "ensive": 2123,
  "ent": 628,
  "enter": 3970,
  "entered": 4118,
  "entering": 7052,
  "enth": 3336,
  "enthus": 3337,
  "enthusiasm": 6291,
  "enthusiastic": 3514,
  "enthusiastically": 8277,
  "ential": 8508,
  "entire": 5541,
  "entr": 5514,
  "entrance": 5567,
  "enty": 7385,
  "env": 2541,
  "envel": 2551,
  "envelope": 2616,
  "envelopes": 6689,
  "envious": 2661,
  "environment": 6790,
  "envy": 8265,
  "eorge": 4384,
  "ep": 437,
  "epend": 1721,
  "ept": 5870,
  "equ": 3929,
  "equally": 8808,
  "equipment": 3992,
  "er": 140,
  "era": 2181,
  "eral": 8120,
  "erase": 5841,
  "eraser": 2894,
  "erasers": 7297,
  "erate": 6760,
  "eration": 4215,
  "erc": 3333,
  "erce": 2419,
  "ere": 808,
  "ered": 1032,
  "erest": 1857,
  "ering": 6660,
  "erk": 6607,
  "ern": 4663,
  "ernel": 8296,
  "ernels": 8351,
  "ernie": 8639,
  "ero": 4003,
  "erry": 1638,
  "ers": 521,
  "ert": 1926,
  "ertain": 6485,
  "ery": 1858,
  "es": 225,
  "escap": 2247,
  "escape": 2563,
  "escaped": 4648,
  "esday": 2967,
  "ese": 8589,
  "esome": 4968,
  "esp": 4221,
  "especially": 4222,
  "ess": 573,
  "essed": 4424,
  "esses": 6834,
  "essie": 5298,
  "est": 2804,
  "esy": 8208,
  "et": 170,
  "etch": 4416,
  "eter": 2034,
  "eterinarian": 3785,
  "eth": 2097,
  "ethro": 8457,
  "ets": 6852,
  "ety": 4444,
  "ev": 5468,
  "eva": 7467,
  "even": 626,
  "evening": 3977,
  "event": 1994,
  "events": 8631,
  "eventually": 2377,
  "ever": 696,
  "every": 340,
  "everybody": 5408,
  "everyday": 4466,
  "everyone": 621,
  "everything": 1333,
  "everytime": 8835,
  "everywhere": 1163,
  "evil": 6058,
  "ew": 449,
  "eww": 7948,
  "ex": 395,
  "exactly": 5223,
  "exam": 2483,
  "examine": 4235,
  "examined": 5161,
  "examining": 7232,
  "example": 7885,
  "exams": 7577,
  "exc": 507,
  "exce": 5922,
  "excellent": 8329,
  "except": 6438,
  "exch": 7304,
  "exchange": 8395,
  "exchanged": 8703,
  "excite": 3003,
  "excited": 528,
  "excitedly": 3825,
  "excitement": 3497,
  "exciting": 2461,
  "exclaimed": 4152,
  "excuse": 5406,
  "exerc": 3352,
  "exercise": 3594,
  "exercises": 6356,
  "exercising": 8418,
  "exha": 5564,
  "exhaust": 5603,
  "exhausted": 5615,
  "exit": 4538,
  "exp": 1814,
  "expect": 4053,
  "expected": 4681,
  "expecting": 6871,
  "expensive": 2124,
  "exper": 4064,
  "experien": 6884,
  "experience": 4311,
  "experienced": 6913,
  "experiences": 7194,
  "experiment": 7679,
  "expert": 7381,
  "expl": 850,
  "explain": 3345,
  "explained": 2599,
  "explains": 6938,
  "explanation": 8134,
  "explo": 6987,
  "explode": 8233,
  "explor": 2028,
  "exploration": 6759,
  "explore": 1130,
  "explored": 4187,
  "explorer": 6169,
  "explorers": 5136,
  "exploring": 2375,
  "explos": 8611,
  "express": 6812,
  "expression": 8493,
  "ext": 3848,
  "extra": 3930,
  "extraord": 8000,
  "extraordinary": 8001,
  "ey": 1460,
  "eye": 3237,
  "eyes": 913,
  "f": 102,
  "fa": 351,
  "fabric": 5366,
  "face": 803,
  "faced": 4953,
  "faces": 1916,
  "facing": 7378,
  "fact": 5491,
  "faction": 7519,
  "factory": 3478,
  "facts": 6872,
  "fade": 7514,
  "faded": 6543,
  "fading": 8082,
  "fail": 8146,
  "failed": 7043,
  "faint": 8218,
  "fair": 1070,
  "fairies": 5761,
  "fairland": 7812,
  "fairly": 8765,
  "fairy": 1368,
  "faith": 6421,
  "fake": 1954,
  "fall": 1146,
  "fallen": 4205,
  "falling": 3407,
  "falls": 3199,
  "fam": 665,
  "famil": 4258,
  "familiar": 6129,
  "families": 4516,
  "family": 713,
  "famous": 2224,
  "fan": 1377,
  "fancy": 1827,
  "fanny": 7397,
  "fans": 5950,
  "fantastic": 7638,
  "far": 686,
  "faraway": 4886,
  "farm": 996,
  "farmer": 1469,
  "farmers": 6604,
  "farther": 5303,
  "farthest": 5867,
  "fas": 4947,
  "fasc": 5103,
  "fascin": 5113,
  "fascinated": 5332,
  "fascinating": 8125,
  "fashion": 4624,
  "fast": 537,
  "faste": 3529,
  "fasten": 8419,
  "faster": 1316,
  "fastest": 3555,
  "fat": 2400,
  "fate": 8477,
  "father": 2897,
  "faucet": 3223,
  "fault": 5286,
  "fav": 877,
  "favor": 922,
  "favorite": 924,
  "favour": 3673,
  "favourite": 3690,
  "faye": 5823,
  "fe": 388,
  "fear": 2068,
  "fearful": 2833,
  "fears": 4948,
  "feast": 5860,
  "feather": 1901,
  "feathers": 2966,
  "fed": 4808,
  "feed": 2231,
  "feeding": 4934,
  "feel": 532,
  "feeling": 1058,
  "feelings": 3806,
  "feels": 1660,
  "feet": 2179,
  "fel": 7213,
  "felix": 7281,
  "fell": 806,
  "felt": 360,
  "fence": 1589,
  "fences": 7170,
  "ferry": 7445,
  "fest": 3623,
  "festiv": 3630,
  "festival": 3634,
  "fet": 7254,
  "fetch": 4689,
  "fetched": 7681,
  "fever": 5811,
  "few": 1675,
  "ff": 468,
  "ffic": 3647,
  "fi": 602,
  "fido": 5712,
  "fie": 8007,
  "fied": 5291,
  "field": 1302,
  "fields": 4338,
  "fierce": 2423,
  "fif": 4894,
  "fifi": 5098,
  "fifty": 8174,
  "fig": 2583,
  "fight": 1087,
  "fighting": 1740,
  "fights": 7789,
  "figure": 2702,
  "figured": 6132,
  "figures": 5166,
  "fil": 2066,
  "file": 3912,
  "fill": 1184,
  "filled": 1373,
  "filling": 5570,
  "fills": 6468,
  "film": 3567,
  "films": 6398,
  "filthy": 2725,
  "fin": 604,
  "final": 7060,
  "finally": 1170,
  "find": 390,
  "finding": 2445,
  "finds": 3696,
  "fine": 2398,
  "fing": 2035,
  "finger": 2681,
  "fingers": 3492,
  "finish": 1932,
  "finished": 1330,
  "finishes": 8535,
  "finishing": 6935,
  "finite": 6362,
  "finn": 4199,
  "finny": 4340,
  "fins": 6103,
  "fiona": 8502,
  "fire": 1117,
  "fired": 7546,
  "firef": 4522,
  "firefight": 5195,
  "firefighter": 7209,
  "firefighters": 5554,
  "firefly": 5431,
  "fireman": 4405,
  "firemen": 5245,
  "fireplace": 3643,
  "fires": 6988,
  "firework": 3258,
  "fireworks": 4500,
  "firm": 5365,
  "firmly": 6018,
  "first": 935,
  "fis": 2510,
  "fish": 571,
  "fisher": 2949,
  "fisherman": 3069,
  "fishermen": 6509,
  "fishes": 7797,
  "fishing": 4673,
  "fishy": 5289,
  "fist": 6720,
  "fit": 1530,
  "fits": 5734,
  "five": 3535,
  "fived": 8242,
  "fix": 822,
  "fixed": 1685,
  "fixer": 6261,
  "fixing": 4001,
  "fl": 376,
  "fla": 6555,
  "flag": 2088,
  "flags": 5015,
  "flame": 3205,
  "flames": 5536,
  "flap": 4291,
  "flapped": 4232,
  "flapping": 5645,
  "flappy": 6577,
  "flaps": 6524,
  "flas": 7788,
  "flash": 2547,
  "flashed": 7466,
  "flashes": 7460,
  "flashing": 7919,
  "flashlight": 2914,
  "flat": 4503,
  "flav": 5107,
  "flavor": 5668,
  "flavors": 6685,
  "fle": 1779,
  "flea": 3014,
  "fleas": 5854,
  "fleur": 7510,
  "flew": 609,
  "flex": 2456,
  "flexible": 2469,
  "flick": 6216,
  "flicked": 7926,
  "flies": 3871,
  "flight": 5968,
  "flip": 5624,
  "flipp": 7026,
  "flipped": 6017,
  "flippers": 7720,
  "flipping": 8437,
  "flips": 6998,
  "flo": 885,
  "float": 3986,
  "floated": 4228,
  "floating": 4470,
  "floats": 6636,
  "flock": 6125,
  "flood": 3734,
  "flooded": 8660,
  "floods": 8795,
  "floor": 976,
  "floors": 7809,
  "flop": 8186,
  "floppy": 7880,
  "flora": 6263,
  "florence": 7227,
  "flour": 3387,
  "flow": 593,
  "flower": 943,
  "flowers": 807,
  "flowing": 8055,
  "flown": 6233,
  "fluff": 8564,
  "fluffy": 764,
  "flung": 8884,
  "flute": 2955,
  "flutter": 4881,
  "fluttered": 6068,
  "fluttering": 7207,
  "fly": 648,
  "flyer": 7990,
  "flying": 1406,
  "fo": 600,
  "foam": 8451,
  "focus": 6477,
  "focused": 6736,
  "fog": 3360,
  "foggy": 7027,
  "fold": 2408,
  "folded": 4220,
  "folder": 2639,
  "folding": 5400,
  "foldy": 7735,
  "follow": 921,
  "followed": 1249,
  "followers": 7870,
  "following": 4039,
  "follows": 4091,
  "fond": 8510,
  "food": 590,
  "foods": 5012,
  "fool": 2196,
  "fooled": 6243,
  "foolish": 2285,
  "fools": 8539,
  "foot": 1817,
  "football": 3510,
  "footprints": 7260,
  "footsteps": 5525,
  "for": 226,
  "force": 6124,
  "forces": 8825,
  "fore": 653,
  "forehead": 5309,
  "foreshadow": 8483,
  "forest": 727,
  "forests": 7140,
  "forever": 1567,
  "forg": 977,
  "forgave": 3667,
  "forget": 1843,
  "forgets": 5804,
  "forgetting": 6065,
  "forgive": 1824,
  "forgiven": 6741,
  "forgiveness": 6582,
  "forgives": 6679,
  "forgiving": 5202,
  "forgot": 1265,
  "forgotten": 4177,
  "fork": 2831,
  "forked": 8700,
  "forks": 5783,
  "forky": 6251,
  "form": 3818,
  "fort": 1443,
  "fortable": 1712,
  "forth": 2941,
  "forts": 7164,
  "fortun": 4272,
  "fortunately": 4327,
  "forward": 2742,
  "fossil": 8084,
  "fought": 3394,
  "found": 327,
  "fountain": 2927,
  "four": 2774,
  "fox": 1292,
  "foxes": 8523,
  "foxy": 5330,
  "fr": 285,
  "fra": 2520,
  "frag": 2540,
  "fragile": 2572,
  "frame": 2630,
  "frances": 8164,
  "frank": 4659,
  "frankie": 6375,
  "fre": 3875,
  "fred": 1786,
  "freddie": 8161,
  "freddy": 3973,
  "fredrick": 7174,
  "free": 1387,
  "freed": 6025,
  "freedom": 7348,
  "freely": 8013,
  "freez": 3524,
  "freeze": 3834,
  "freezer": 3616,
  "freezing": 7219,
  "fresh": 3948,
  "fridge": 2851,
  "friend": 200,
  "friendly": 1039,
  "friends": 243,
  "friendship": 2570,
  "friendships": 6230,
  "friger": 3207,
  "frigerator": 3211,
  "fright": 8603,
  "frightened": 2144,
  "frightening": 8833,
  "fro": 4113,
  "frog": 746,
  "froggy": 4141,
  "frogs": 3454,
  "from": 337,
  "front": 2031,
  "frost": 4515,
  "frosting": 5048,
  "frosty": 5838,
  "frown": 2447,
  "frowned": 3797,
  "frowning": 5846,
  "frowns": 5871,
  "froze": 5144,
  "frozen": 4676,
  "fruit": 1110,
  "fruits": 1968,
  "frust": 2269,
  "frustr": 7506,
  "frustrated": 2314,
  "frustration": 7584,
  "ft": 731,
  "fted": 1797,
  "fter": 492,
  "fu": 992,
  "fuel": 3458,
  "ful": 344,
  "fulf": 7053,
  "fulfill": 8093,
  "fulfilled": 8809,
  "full": 1043,
  "fully": 1308,
  "fun": 275,
  "funeral": 8123,
  "funn": 6767,
  "funnier": 8500,
  "funniest": 8600,
  "funny": 852,
  "fur": 1280,
  "furious": 7790,
  "furn": 4100,
  "furniture": 4106,
  "furry": 1999,
  "furt": 4181,
  "further": 4186,
  "fus": 6207,
  "fused": 1615,
  "fuss": 8519,
  "fut": 5372,
  "future": 5384,
  "fuzz": 8389,
  "fuzzy": 7508,
  "fying": 8543,
  "g": 103,
  "ga": 3847,
  "gain": 3918,
  "gained": 4711,
  "game": 804,
  "games": 1202,
  "gan": 823,
  "gap": 6806,
  "gar": 2708,
  "garage": 2805,
  "garbage": 6601,
  "garden": 694,
  "gardener": 6140,
  "gardens": 8353,
  "gary": 8163,
  "gas": 2112,
  "gasp": 6388,
  "gasped": 3328,
  "gasps": 6367,
  "gate": 2053,
  "gates": 7980,
  "gather": 1993,
  "gathered": 3023,
  "gathering": 4775,
  "gave": 549,
  "gaz": 5682,
  "gaze": 4795,
  "gazed": 4467,
  "gazing": 5981,
  "ge": 443,
  "gear": 3231,
  "gears": 7276,
  "ged": 554,
  "gee": 5806,
  "geese": 5814,
  "gem": 2736,
  "gems": 6504,
  "gen": 2170,
  "gener": 2222,
  "generosity": 6722,
  "generous": 2293,
  "genie": 6513,
  "gent": 1251,
  "gentle": 1545,
  "gently": 2047,
  "george": 4390,
  "ger": 719,
  "germs": 6771,
  "gerry": 8849,
  "gers": 6190,
  "ges": 2611,
  "gest": 2101,
  "gesture": 7050,
  "gestured": 8758,
  "get": 276,
  "getable": 2289,
  "gether": 281,
  "gets": 2840,
  "getting": 1501,
  "gg": 1303,
  "ggie": 5381,
  "gging": 4144,
  "ggles": 8306,
  "ggy": 5598,
  "gh": 2539,
  "ghost": 2550,
  "ghosts": 5807,
  "gi": 1083,
  "gia": 7125,
  "giant": 1744,
  "giants": 7132,
  "gic": 6455,
  "giddy": 7732,
  "gie": 3863,
  "gift": 1319,
  "gifted": 2999,
  "gifts": 4288,
  "gigg": 2175,
  "giggle": 3981,
  "giggled": 3034,
  "giggles": 6496,
  "giggling": 5378,
  "gigi": 3903,
  "gill": 7148,
  "gin": 6473,
  "gina": 5419,
  "gine": 2009,
  "ging": 3518,
  "ginnie": 8547,
  "ginny": 7309,
  "gir": 296,
  "giraff": 2948,
  "giraffe": 3375,
  "giraffes": 4952,
  "girl": 299,
  "girls": 4534,
  "give": 655,
  "given": 4265,
  "gives": 2014,
  "giving": 2751,
  "gl": 679,
  "glad": 1111,
  "gladly": 8602,
  "glanced": 6956,
  "glared": 6349,
  "glass": 2095,
  "glasses": 2624,
  "gle": 8018,
  "gleam": 8072,
  "glee": 6888,
  "glided": 8630,
  "glimmering": 7841,
  "gliste": 6847,
  "glistened": 8537,
  "glistening": 8019,
  "glitt": 6593,
  "glitter": 4950,
  "glittered": 7550,
  "glittering": 7595,
  "glittery": 8632,
  "glo": 4394,
  "gloom": 8476,
  "gloomy": 2552,
  "glove": 3181,
  "gloves": 4428,
  "glow": 1832,
  "glowed": 4819,
  "glowing": 3763,
  "glows": 6715,
  "glue": 2025,
  "glued": 5897,
  "glues": 8587,
  "gly": 1446,
  "go": 300,
  "goal": 3574,
  "goalie": 6199,
  "goals": 4683,
  "goat": 1949,
  "gobbled": 5791,
  "god": 3758,
  "godmother": 7282,
  "goes": 2128,
  "gog": 6868,
  "goggles": 8505,
  "gogo": 5142,
  "going": 859,
  "gold": 2153,
  "golden": 4776,
  "goldfish": 8856,
  "goldy": 8140,
  "golf": 3227,
  "gon": 6526,
  "gone": 1051,
  "gonna": 6554,
  "goo": 5844,
  "good": 378,
  "goodb": 6359,
  "goodbye": 1062,
  "goodbyes": 6433,
  "goodies": 8473,
  "goodness": 7406,
  "goodnight": 5141,
  "gooey": 7578,
  "goose": 2313,
  "gopher": 8429,
  "gor": 2719,
  "gorge": 8802,
  "gorilla": 2750,
  "got": 463,
  "gotcha": 8709,
  "gotten": 5256,
  "gr": 650,
  "gra": 522,
  "grab": 1748,
  "grabbed": 1176,
  "grabbing": 6269,
  "grabs": 3711,
  "grace": 2378,
  "graceful": 3174,
  "gracefully": 5837,
  "gracie": 6015,
  "gradually": 8576,
  "gramps": 7527,
  "grand": 1027,
  "grandchildren": 8192,
  "granddad": 8601,
  "granddaughter": 7978,
  "grandfather": 5607,
  "grandma": 1226,
  "grandmother": 5129,
  "grandpa": 2259,
  "grandpare": 6817,
  "grandparents": 7632,
  "granny": 5868,
  "grant": 3618,
  "granted": 4796,
  "grape": 3350,
  "grapes": 2952,
  "grass": 988,
  "grasshopper": 6160,
  "grassy": 6598,
  "grateful": 1835,
  "gratitude": 6750,
  "gray": 1662,
  "gre": 518,
  "great": 739,
  "gred": 4135,
  "gredient": 4138,
  "greed": 8051,
  "greedy": 4031,
  "green": 812,
  "greens": 8707,
  "greet": 5346,
  "greeted": 6527,
  "grew": 1609,
  "grey": 4799,
  "gri": 5341,
  "grill": 3631,
  "grilling": 8328,
  "grin": 4482,
  "grinned": 4675,
  "grip": 5551,
  "grizz": 8847,
  "gro": 3962,
  "groaned": 6293,
  "grocer": 6030,
  "groceries": 6108,
  "grocery": 4414,
  "groom": 8086,
  "gross": 5427,
  "ground": 664,
  "group": 2304,
  "groups": 5301,
  "grow": 1209,
  "growing": 3501,
  "growl": 3318,
  "growled": 4393,
  "growling": 5342,
  "growls": 5428,
  "grown": 2832,
  "grows": 5425,
  "grum": 6753,
  "grumbled": 6900,
  "grumbling": 8387,
  "grumpy": 1668,
  "gry": 598,
  "gu": 1354,
  "guard": 2704,
  "guardian": 6159,
  "guarding": 6928,
  "guards": 6724,
  "guess": 2861,
  "guessed": 4632,
  "guesses": 6899,
  "guessing": 6287,
  "guest": 4843,
  "guests": 5485,
  "guide": 5802,
  "guided": 6898,
  "guil": 2903,
  "guilt": 7451,
  "guilty": 2912,
  "guitar": 2329,
  "gulp": 6001,
  "gulped": 7757,
  "gum": 2792,
  "gun": 2074,
  "guns": 5180,
  "gust": 4595,
  "guy": 6262,
  "guys": 5092,
  "gwen": 7440,
  "gy": 1412,
  "gym": 2892,
  "h": 104,
  "ha": 148,
  "hab": 7071,
  "habit": 7589,
  "had": 203,
  "hadn": 4310,
  "hailey": 7605,
  "hair": 1007,
  "haircut": 3021,
  "haircuts": 6286,
  "haircutter": 7649,
  "hairy": 2482,
  "half": 2956,
  "hall": 3292,
  "hallow": 5928,
  "halloween": 5935,
  "hallway": 5393,
  "halves": 5946,
  "ham": 5667,
  "hamm": 6560,
  "hammer": 3450,
  "hammered": 7821,
  "hammers": 7817,
  "hamster": 7334,
  "hana": 7464,
  "hand": 570,
  "handed": 3755,
  "handful": 5391,
  "handing": 7126,
  "handle": 2954,
  "handles": 7912,
  "hands": 838,
  "handsome": 6498,
  "hang": 2339,
  "hanger": 3523,
  "hangers": 7432,
  "hanging": 3447,
  "hangs": 8737,
  "hank": 7179,
  "hanna": 8038,
  "hannah": 7559,
  "happ": 197,
  "happen": 1384,
  "happened": 589,
  "happening": 2936,
  "happens": 3884,
  "happier": 3530,
  "happiest": 4608,
  "happily": 747,
  "happiness": 2716,
  "happy": 219,
  "har": 1496,
  "harbor": 4285,
  "hard": 643,
  "harder": 2891,
  "hardest": 7497,
  "hardly": 4844,
  "harley": 8462,
  "harm": 2353,
  "harmless": 2495,
  "harmony": 7391,
  "harry": 4629,
  "harsh": 2676,
  "harvest": 8515,
  "has": 880,
  "hat": 770,
  "hatch": 6861,
  "hate": 3179,
  "hated": 4915,
  "hates": 7779,
  "hats": 2450,
  "hatty": 6698,
  "haunted": 8744,
  "have": 325,
  "having": 827,
  "haw": 7359,
  "hawk": 7572,
  "hay": 2415,
  "hazel": 8032,
  "he": 127,
  "head": 894,
  "headache": 7592,
  "headed": 4812,
  "heading": 5803,
  "heads": 3952,
  "heal": 1461,
  "healed": 4854,
  "healing": 6164,
  "health": 5794,
  "healthier": 8280,
  "healthy": 1844,
  "hear": 834,
  "heard": 616,
  "hearing": 7147,
  "hears": 2410,
  "heart": 1619,
  "heartbroken": 6687,
  "hearts": 4305,
  "heat": 3824,
  "heav": 5686,
  "heaven": 7046,
  "heavier": 5797,
  "heavy": 1247,
  "hed": 308,
  "hedge": 3541,
  "hedgeh": 6241,
  "hedgehog": 6265,
  "heel": 4189,
  "height": 6222,
  "heights": 7113,
  "hel": 1952,
  "held": 1162,
  "helicopter": 3200,
  "helicopters": 6974,
  "hello": 908,
  "helmet": 2651,
  "helmets": 5008,
  "help": 263,
  "helped": 742,
  "helper": 3581,
  "helpers": 5196,
  "helpful": 1828,
  "helping": 1069,
  "helpless": 2822,
  "helps": 2837,
  "hen": 312,
  "henny": 4824,
  "henry": 4471,
  "hens": 8213,
  "her": 182,
  "herb": 2803,
  "herbie": 7361,
  "herbs": 4800,
  "here": 575,
  "hero": 2310,
  "heroes": 4970,
  "heron": 6862,
  "hers": 4499,
  "herself": 1531,
  "hes": 717,
  "hesit": 4704,
  "hesitant": 6550,
  "hesitated": 5708,
  "hesitation": 6737,
  "hest": 4126,
  "het": 2515,
  "hetti": 2521,
  "hey": 1820,
  "hi": 826,
  "hid": 972,
  "hidden": 2005,
  "hide": 1138,
  "hider": 5626,
  "hides": 5891,
  "hiding": 1573,
  "hig": 1388,
  "high": 662,
  "higher": 1468,
  "highest": 4241,
  "hill": 933,
  "hills": 4015,
  "him": 302,
  "himself": 1295,
  "hin": 1980,
  "hing": 335,
  "hinoc": 3188,
  "hinocer": 3194,
  "hinoceros": 3202,
  "hins": 5423,
  "hint": 8586,
  "hip": 2568,
  "hipp": 2882,
  "hippo": 2959,
  "hippos": 6957,
  "hippy": 5222,
  "hips": 8513,
  "his": 183,
  "hiss": 6943,
  "hissed": 4832,
  "hisses": 6815,
  "hissing": 6570,
  "history": 4671,
  "hit": 1315,
  "hits": 4461,
  "hitting": 4910,
  "hive": 2890,
  "hmm": 6700,
  "hn": 906,
  "hne": 8066,
  "hny": 6122,
  "ho": 503,
  "hoc": 3295,
  "hockey": 3306,
  "hoe": 7544,
  "hold": 1072,
  "holding": 1730,
  "holds": 3491,
  "hole": 811,
  "holes": 3729,
  "holid": 3641,
  "holiday": 3646,
  "holidays": 7470,
  "holly": 5383,
  "home": 397,
  "homes": 2926,
  "homework": 5153,
  "hon": 4172,
  "honest": 1782,
  "honesty": 5819,
  "honey": 1755,
  "honk": 4998,
  "honked": 5370,
  "honking": 7447,
  "honks": 7983,
  "honor": 8089,
  "hoo": 6308,
  "hood": 4108,
  "hoof": 7233,
  "hook": 3097,
  "hooked": 8768,
  "hooks": 7564,
  "hoop": 2631,
  "hooray": 8356,
  "hoot": 5310,
  "hooves": 7899,
  "hop": 895,
  "hope": 1746,
  "hoped": 1525,
  "hopeful": 5887,
  "hopes": 4132,
  "hoping": 3953,
  "hopped": 1195,
  "hopper": 5132,
  "hopping": 2695,
  "hoppy": 4059,
  "hops": 8029,
  "hor": 1649,
  "horiz": 6435,
  "horizon": 6502,
  "horn": 2338,
  "horns": 4964,
  "horri": 7622,
  "horrible": 7827,
  "horse": 1890,
  "horses": 4233,
  "horsy": 5515,
  "hose": 2501,
  "hoses": 7444,
  "hospit": 3111,
  "hospital": 3112,
  "host": 7151,
  "hot": 969,
  "hotel": 3027,
  "hotter": 6705,
  "hour": 3218,
  "hours": 3432,
  "house": 426,
  "houses": 2816,
  "hovering": 8368,
  "how": 539,
  "however": 4644,
  "howl": 8251,
  "howled": 8367,
  "ht": 252,
  "htray": 3659,
  "htub": 3310,
  "hu": 6489,
  "huff": 7298,
  "hug": 500,
  "huge": 1702,
  "hugged": 701,
  "hugging": 5233,
  "hugs": 1747,
  "hula": 7116,
  "hum": 1920,
  "human": 3399,
  "humans": 5486,
  "humble": 2610,
  "hummed": 8061,
  "humming": 7363,
  "humphrey": 7236,
  "hun": 973,
  "hundred": 7346,
  "hundreds": 8281,
  "hung": 3877,
  "hungry": 1018,
  "hunt": 2985,
  "hunter": 3348,
  "hunters": 6940,
  "hur": 2043,
  "hurrican": 3335,
  "hurricane": 3372,
  "hurried": 4667,
  "hurry": 3313,
  "hurt": 672,
  "hurtful": 8447,
  "hurting": 4155,
  "hurts": 2721,
  "hus": 5436,
  "husband": 5439,
  "hut": 3461,
  "hy": 4389,
  "hyth": 4464,
  "hythm": 4465,
  "i": 105,
  "ia": 389,
  "iable": 2691,
  "ial": 8024,
  "iam": 5725,
  "ian": 1837,
  "iano": 3406,
  "iant": 1430,
  "iao": 7740,
  "iar": 5199,
  "ias": 6259,
  "iasm": 6282,
  "iastic": 3513,
  "ibil": 7328,
  "ible": 1490,
  "ic": 290,
  "ica": 4777,
  "ically": 8633,
  "icate": 7287,
  "icated": 7612,
  "ice": 401,
  "iced": 1077,
  "icent": 7070,
  "icer": 4111,
  "ich": 1522,
  "icha": 5723,
  "ichael": 5726,
  "iches": 3666,
  "ici": 6210,
  "icia": 8592,
  "icing": 4900,
  "icious": 7351,
  "ick": 441,
  "icked": 2100,
  "icken": 1989,
  "icking": 8506,
  "icky": 7360,
  "icopter": 3191,
  "ics": 6832,
  "ict": 2828,
  "ictionary": 3561,
  "icy": 1415,
  "id": 146,
  "idden": 8550,
  "iddle": 2642,
  "iddy": 7182,
  "ide": 282,
  "idea": 601,
  "ideas": 4364,
  "ided": 515,
  "idence": 7068,
  "ident": 2503,
  "idents": 6260,
  "ides": 4150,
  "idey": 6195,
  "idge": 1680,
  "iding": 5911,
  "ido": 5435,
  "ids": 5835,
  "ie": 381,
  "iece": 6751,
  "ied": 984,
  "ief": 2844,
  "iel": 5874,
  "ield": 1112,
  "ien": 4603,
  "ience": 3546,
  "iens": 7848,
  "ient": 1031,
  "ientist": 8079,
  "ier": 1625,
  "iers": 4645,
  "ies": 753,
  "iest": 3612,
  "iew": 3113,
  "if": 584,
  "ife": 1807,
  "iff": 2149,
  "ifi": 8786,
  "ig": 165,
  "igail": 5634,
  "igator": 2659,
  "ige": 7077,
  "iger": 1813,
  "igg": 1719,
  "igger": 7389,
  "igging": 4519,
  "igh": 572,
  "ight": 357,
  "ighte": 2044,
  "ightened": 2130,
  "ightening": 7686,
  "igi": 3787,
  "iginal": 2385,
  "igloo": 3327,
  "ign": 1801,
  "ignor": 2119,
  "ignorant": 2618,
  "ignore": 3790,
  "ignored": 4087,
  "ignoring": 5969,
  "ike": 1101,
  "iki": 4261,
  "iky": 6381,
  "il": 267,
  "ila": 1709,
  "ilable": 3269,
  "ild": 683,
  "ile": 407,
  "iled": 374,
  "iles": 5672,
  "iley": 6106,
  "iling": 1737,
  "ill": 279,
  "illa": 2554,
  "illed": 6500,
  "illip": 6833,
  "illy": 837,
  "ilot": 3257,
  "ilt": 2465,
  "ilted": 7513,
  "ily": 336,
  "im": 143,
  "ima": 1856,
  "imag": 2842,
  "image": 4324,
  "images": 5395,
  "imaginary": 8565,
  "imagination": 4358,
  "imaginations": 8665,
  "imagine": 3687,
  "imagined": 3894,
  "imagining": 5936,
  "imal": 550,
  "imb": 667,
  "ime": 2971,
  "imed": 3862,
  "iment": 7556,
  "imes": 1019,
  "imi": 1369,
  "imits": 8372,
  "immediately": 4295,
  "immer": 6490,
  "immering": 6778,
  "imney": 3695,
  "imp": 801,
  "impact": 8360,
  "impatient": 2931,
  "imply": 6552,
  "import": 932,
  "importance": 4602,
  "important": 952,
  "impossible": 5733,
  "impr": 3381,
  "impress": 2178,
  "impressed": 4048,
  "impressive": 2685,
  "improve": 3749,
  "improved": 5331,
  "in": 138,
  "ina": 2308,
  "inal": 2351,
  "inald": 6517,
  "inarian": 3784,
  "inary": 2634,
  "ination": 3557,
  "inc": 1652,
  "ince": 3995,
  "inch": 4882,
  "inched": 8246,
  "inches": 6138,
  "inclu": 3896,
  "include": 4493,
  "included": 5637,
  "including": 6000,
  "incre": 3819,
  "increase": 4245,
  "increased": 5325,
  "increasing": 8004,
  "incred": 2173,
  "incredible": 2185,
  "inct": 7616,
  "incy": 7241,
  "ind": 278,
  "inda": 7091,
  "indeed": 5970,
  "independ": 2522,
  "independent": 2534,
  "indr": 5925,
  "indy": 4449,
  "ine": 639,
  "ined": 1572,
  "ines": 3559,
  "iness": 2468,
  "inf": 4576,
  "infant": 4638,
  "inform": 7568,
  "information": 7787,
  "ing": 152,
  "ingredient": 4147,
  "ingredients": 4191,
  "ings": 386,
  "ingu": 8747,
  "ining": 5405,
  "inj": 6481,
  "injured": 6971,
  "ink": 552,
  "inking": 4029,
  "inky": 3209,
  "inn": 7648,
  "innamon": 7883,
  "ins": 1242,
  "inse": 3279,
  "insect": 3349,
  "insects": 5865,
  "inseparable": 7946,
  "inside": 496,
  "insist": 5134,
  "insisted": 4027,
  "insisting": 6445,
  "insists": 8628,
  "insp": 6094,
  "inspected": 8303,
  "inspired": 6165,
  "inst": 4248,
  "instant": 8714,
  "instantly": 7130,
  "instead": 1417,
  "instinct": 7815,
  "instincts": 8763,
  "instr": 4544,
  "instruct": 5108,
  "instructions": 5109,
  "instrument": 5739,
  "instruments": 6443,
  "int": 471,
  "inted": 2978,
  "intell": 3007,
  "intellig": 3008,
  "intelligence": 7180,
  "intelligent": 3084,
  "intent": 6801,
  "intently": 7129,
  "inter": 7675,
  "interest": 1859,
  "interested": 5444,
  "interesting": 1964,
  "interests": 8671,
  "interrupted": 8382,
  "inters": 8792,
  "into": 512,
  "intrig": 6456,
  "intrigued": 6635,
  "introd": 3831,
  "introdu": 5290,
  "introduce": 4207,
  "introduced": 5702,
  "introducing": 7159,
  "inv": 1771,
  "invest": 4784,
  "investig": 4788,
  "investigate": 4817,
  "invisible": 8392,
  "invit": 3868,
  "invitation": 4169,
  "invitations": 6235,
  "invite": 3736,
  "invited": 2812,
  "invites": 6693,
  "inviting": 5214,
  "iny": 544,
  "io": 2578,
  "iolet": 5919,
  "ion": 629,
  "ionary": 3560,
  "ions": 1934,
  "ious": 903,
  "ip": 723,
  "ipment": 3975,
  "ipp": 1353,
  "ipped": 1673,
  "ippee": 8301,
  "ipping": 4504,
  "ips": 4635,
  "ir": 161,
  "ira": 6648,
  "iran": 7585,
  "ird": 1894,
  "ire": 1596,
  "ired": 830,
  "irit": 2951,
  "irl": 5998,
  "irls": 6649,
  "irm": 5359,
  "iron": 3006,
  "ironment": 6671,
  "irp": 1699,
  "irst": 847,
  "irsty": 2454,
  "irt": 1624,
  "irts": 4652,
  "is": 150,
  "isa": 7289,
  "isabella": 6232,
  "ise": 481,
  "ised": 574,
  "ises": 1464,
  "ish": 435,
  "ished": 791,
  "isher": 8781,
  "ishes": 4706,
  "ishing": 4593,
  "isible": 8313,
  "ising": 4445,
  "ision": 3063,
  "isions": 5706,
  "island": 2426,
  "islands": 7738,
  "isn": 4231,
  "ison": 3786,
  "iss": 1357,
  "issa": 6073,
  "ission": 4923,
  "issors": 1986,
  "ist": 763,
  "iste": 6843,
  "isted": 2974,
  "ister": 1318,
  "istm": 7760,
  "istmas": 7816,
  "istol": 3366,
  "isty": 4959,
  "isy": 1045,
  "it": 142,
  "ita": 6948,
  "itam": 7819,
  "itch": 2069,
  "itched": 8198,
  "itches": 7682,
  "itchy": 5363,
  "ite": 509,
  "ited": 464,
  "item": 4731,
  "items": 5344,
  "ites": 8108,
  "ith": 3317,
  "ither": 2688,
  "ities": 4687,
  "iting": 1938,
  "ition": 6100,
  "ito": 3120,
  "its": 607,
  "itself": 3197,
  "itt": 215,
  "itted": 6221,
  "itten": 2356,
  "ittens": 7847,
  "itter": 2131,
  "itting": 1378,
  "ittle": 227,
  "itty": 725,
  "itu": 6052,
  "itude": 6109,
  "iture": 4104,
  "ity": 1873,
  "ium": 3540,
  "iv": 2622,
  "ive": 474,
  "ived": 4697,
  "ively": 7615,
  "iver": 1466,
  "ives": 7651,
  "ivia": 6831,
  "iving": 4922,
  "ivity": 6352,
  "ix": 1232,
  "iz": 793,
  "izabeth": 8546,
  "ize": 1886,
  "ized": 1181,
  "izes": 4158,
  "izing": 4616,
  "izz": 1974,
  "izza": 2033,
  "izzes": 7776,
  "izzie": 8677,
  "izzy": 4821,
  "j": 106,
  "ja": 2218,
  "jack": 881,
  "jacket": 2723,
  "jackets": 5822,
  "jackie": 6223,
  "jacks": 7493,
  "jacky": 5850,
  "jacob": 4926,
  "jad": 8623,
  "jail": 4122,
  "jake": 2802,
  "jam": 2161,
  "jamas": 5230,
  "james": 4539,
  "jamie": 5711,
  "jamin": 7259,
  "jammed": 8721,
  "jane": 1067,
  "janet": 8282,
  "janey": 6995,
  "janie": 5713,
  "jar": 1431,
  "jars": 7825,
  "jas": 8259,
  "jason": 7523,
  "jasper": 8583,
  "jay": 5905,
  "jayden": 8388,
  "jazz": 3068,
  "je": 1503,
  "jealous": 2372,
  "ject": 2962,
  "jed": 7175,
  "jeep": 2110,
  "jeff": 5662,
  "jeffy": 7892,
  "jellie": 7792,
  "jelly": 1772,
  "jellyfish": 2653,
  "jemima": 8348,
  "jemma": 7154,
  "jen": 1480,
  "jenna": 5176,
  "jennie": 5829,
  "jenny": 2474,
  "jerry": 2091,
  "jess": 3987,
  "jessica": 5179,
  "jessie": 5095,
  "jet": 2918,
  "jets": 6927,
  "jew": 1756,
  "jewel": 1761,
  "jewelry": 2906,
  "jewels": 4868,
  "ji": 6338,
  "jigg": 8464,
  "jill": 2120,
  "jillian": 8479,
  "jilly": 5271,
  "jim": 2113,
  "jimmy": 3079,
  "jing": 6848,
  "jingle": 8676,
  "jingled": 8595,
  "jo": 488,
  "joan": 6625,
  "joanna": 7392,
  "job": 1199,
  "jobs": 6404,
  "jodie": 7583,
  "jody": 6425,
  "joe": 1529,
  "joey": 4698,
  "jog": 2154,
  "jogged": 4114,
  "jogging": 4194,
  "john": 1261,
  "johnny": 3332,
  "johnson": 7249,
  "johny": 6702,
  "joiced": 8150,
  "join": 1128,
  "joined": 2364,
  "joining": 5717,
  "joins": 5972,
  "jojo": 5547,
  "joke": 1757,
  "joked": 5259,
  "jokes": 3382,
  "joking": 4769,
  "jolly": 2422,
  "jon": 5899,
  "jonathan": 7618,
  "jones": 5749,
  "jonny": 7575,
  "jordan": 7399,
  "josh": 4732,
  "journ": 1754,
  "journal": 3504,
  "journey": 2109,
  "journeys": 6075,
  "joy": 920,
  "joyed": 5524,
  "joyful": 6267,
  "joyfully": 6990,
  "ju": 1240,
  "judge": 2710,
  "judges": 7769,
  "judy": 7874,
  "jug": 2529,
  "jugg": 7633,
  "juggle": 8566,
  "jugs": 8888,
  "juice": 1600,
  "juicy": 3104,
  "julia": 8492,
  "julie": 5482,
  "jump": 523,
  "jumped": 712,
  "jumper": 8421,
  "jumping": 1947,
  "jumps": 3591,
  "jumpy": 7021,
  "june": 6694,
  "jung": 2370,
  "jungle": 2382,
  "junk": 3502,
  "just": 563,
  "k": 107,
  "ka": 7710,
  "kali": 8347,
  "kang": 3357,
  "kanga": 7048,
  "kangaroo": 3473,
  "kangaroos": 8271,
  "kara": 8449,
  "karen": 6944,
  "kari": 7924,
  "kate": 4312,
  "katelyn": 8433,
  "katie": 4761,
  "katy": 7562,
  "kay": 700,
  "kayak": 3737,
  "kayaks": 7685,
  "kayla": 6304,
  "kaylee": 5767,
  "ke": 190,
  "ked": 185,
  "keep": 796,
  "keeper": 3109,
  "keepers": 6629,
  "keeping": 3791,
  "keeps": 4533,
  "keith": 7405,
  "kelly": 6645,
  "kelse": 7724,
  "kelsey": 7918,
  "ken": 1950,
  "kept": 832,
  "ker": 5413,
  "kernels": 8434,
  "kers": 1519,
  "kes": 5628,
  "ketch": 7104,
  "ketchup": 7274,
  "kevin": 7193,
  "key": 1088,
  "keyhole": 7524,
  "keys": 5495,
  "ki": 3614,
  "kick": 1992,
  "kicked": 2235,
  "kicking": 4469,
  "kicks": 5353,
  "kid": 716,
  "kids": 758,
  "kiki": 4264,
  "killed": 7480,
  "kim": 3108,
  "kin": 1722,
  "kind": 578,
  "kinder": 8406,
  "kindest": 8058,
  "kindly": 4746,
  "kindness": 3153,
  "kinds": 3804,
  "king": 409,
  "kingdom": 4271,
  "kings": 6397,
  "kins": 4550,
  "kiran": 7902,
  "kirsty": 8486,
  "kis": 2246,
  "kiss": 2192,
  "kissed": 2658,
  "kisses": 4313,
  "kissing": 7414,
  "kit": 766,
  "kitc": 883,
  "kitchen": 884,
  "kite": 1409,
  "kites": 4490,
  "kitten": 1653,
  "kittens": 5690,
  "kitty": 782,
  "kn": 310,
  "kne": 3499,
  "knee": 2637,
  "kneel": 3798,
  "kneeled": 4546,
  "kneeling": 7192,
  "kneels": 7761,
  "knees": 5599,
  "knelt": 4700,
  "knew": 476,
  "knife": 2386,
  "knight": 2724,
  "knights": 4628,
  "knit": 7900,
  "knives": 8039,
  "kno": 1536,
  "knob": 3201,
  "knobs": 8741,
  "knock": 3674,
  "knocked": 2219,
  "knocking": 5895,
  "knocks": 5302,
  "knot": 2932,
  "knots": 6271,
  "know": 462,
  "knowing": 2437,
  "knowledge": 5627,
  "known": 4651,
  "knows": 2983,
  "ko": 8206,
  "ky": 5466,
  "kyle": 8432,
  "l": 108,
  "la": 348,
  "lab": 2340,
  "label": 3167,
  "labels": 6406,
  "lace": 2487,
  "laces": 6376,
  "lad": 1860,
  "ladder": 1893,
  "ladders": 8692,
  "lady": 965,
  "ladybug": 4762,
  "laid": 4555,
  "laimed": 4128,
  "lake": 1505,
  "lamb": 6276,
  "lamp": 2092,
  "lamps": 7225,
  "lancelot": 8359,
  "land": 1142,
  "landed": 1773,
  "landing": 7756,
  "lands": 4286,
  "landscap": 4495,
  "landscape": 4586,
  "landscapes": 8428,
  "langu": 3449,
  "language": 3621,
  "languages": 6185,
  "lant": 6326,
  "lantern": 6330,
  "lanterns": 7800,
  "lap": 5488,
  "laptop": 6200,
  "lar": 2021,
  "large": 2086,
  "larger": 6472,
  "largest": 8859,
  "larry": 7920,
  "laser": 3416,
  "lasers": 8118,
  "last": 1848,
  "late": 1635,
  "later": 1798,
  "lau": 3369,
  "laud": 7845,
  "laug": 423,
  "laugh": 1024,
  "laughed": 516,
  "laughing": 1429,
  "laughs": 3088,
  "laught": 3741,
  "laughter": 3742,
  "launch": 8533,
  "laund": 3587,
  "laundry": 3589,
  "laura": 6667,
  "lauren": 6613,
  "laurie": 7045,
  "lava": 8393,
  "law": 2084,
  "lawn": 3670,
  "laws": 7712,
  "lawy": 3768,
  "lawyer": 3850,
  "lawyers": 7376,
  "lax": 2425,
  "lay": 1745,
  "layer": 7579,
  "layers": 8340,
  "laying": 5157,
  "laz": 7332,
  "lazily": 7728,
  "lazy": 2125,
  "ld": 184,
  "lder": 1499,
  "le": 155,
  "lea": 7587,
  "lead": 2180,
  "leader": 4827,
  "leading": 5170,
  "leads": 5951,
  "leaf": 1269,
  "leafy": 6139,
  "leak": 3640,
  "leaking": 7401,
  "lean": 2815,
  "leaned": 3746,
  "leaning": 5445,
  "leans": 7553,
  "leap": 5762,
  "leaping": 7828,
  "leapt": 8425,
  "lear": 432,
  "learn": 954,
  "learned": 504,
  "learner": 7105,
  "learning": 2887,
  "learns": 5155,
  "learnt": 4084,
  "lease": 744,
  "leash": 3235,
  "leashes": 7882,
  "least": 5623,
  "leather": 4401,
  "leave": 798,
  "leaves": 1000,
  "leaving": 3629,
  "lebr": 2006,
  "lect": 5246,
  "lecture": 4143,
  "lectures": 7049,
  "led": 871,
  "ledge": 5619,
  "lee": 3402,
  "leep": 866,
  "left": 1166,
  "leg": 1325,
  "legs": 1896,
  "lem": 1661,
  "lemon": 1898,
  "lemonade": 4082,
  "lemons": 3653,
  "len": 8720,
  "lena": 5334,
  "lend": 3472,
  "lending": 5695,
  "lenny": 5086,
  "lent": 6322,
  "leo": 1628,
  "leopard": 2505,
  "leopards": 8785,
  "ler": 4501,
  "lerious": 8818,
  "les": 1078,
  "lescope": 7415,
  "less": 1098,
  "lesson": 1212,
  "lessons": 7120,
  "let": 452,
  "leton": 3525,
  "lets": 4587,
  "lett": 5420,
  "letter": 1392,
  "letters": 3717,
  "letting": 3881,
  "lettuce": 5422,
  "level": 7329,
  "lever": 7960,
  "lew": 541,
  "lex": 4175,
  "lexi": 6823,
  "ley": 5750,
  "lf": 634,
  "li": 169,
  "lia": 7762,
  "liam": 5771,
  "libr": 2810,
  "librarian": 6346,
  "library": 2935,
  "licen": 3261,
  "license": 3277,
  "lick": 4599,
  "licked": 2859,
  "licking": 5660,
  "licks": 4341,
  "lid": 3599,
  "lie": 3232,
  "lied": 4749,
  "lier": 4758,
  "lies": 3484,
  "life": 1741,
  "lifeguard": 7291,
  "lift": 1910,
  "lifted": 2467,
  "lifting": 6043,
  "lifts": 6137,
  "light": 1079,
  "lighter": 5534,
  "lightly": 8460,
  "lightning": 3628,
  "lights": 3150,
  "like": 338,
  "liked": 352,
  "likely": 8647,
  "likes": 1236,
  "lila": 1311,
  "lilah": 8715,
  "lilly": 4012,
  "lily": 242,
  "lime": 3116,
  "limes": 4690,
  "limp": 7322,
  "limped": 8339,
  "lina": 5527,
  "linda": 7461,
  "line": 1839,
  "lined": 4568,
  "lines": 4708,
  "liness": 8386,
  "ling": 1670,
  "lings": 6493,
  "lion": 1025,
  "lions": 3613,
  "lip": 4302,
  "lips": 4448,
  "lipstick": 8266,
  "liquid": 5017,
  "lis": 566,
  "lisa": 1945,
  "list": 5221,
  "liste": 596,
  "listen": 771,
  "listened": 1076,
  "listener": 7741,
  "listening": 3551,
  "listens": 5386,
  "lists": 8274,
  "lit": 2876,
  "little": 228,
  "live": 1696,
  "lived": 439,
  "lively": 2823,
  "lives": 3853,
  "living": 1467,
  "liz": 2278,
  "liza": 8195,
  "lizard": 2668,
  "lizards": 6270,
  "lizz": 7372,
  "lizzie": 7388,
  "lizzy": 4273,
  "ll": 145,
  "lla": 1151,
  "llen": 5915,
  "llent": 8106,
  "llie": 1558,
  "lling": 7680,
  "llip": 2766,
  "llipop": 2768,
  "llo": 815,
  "llow": 904,
  "lls": 8071,
  "lly": 524,
  "lo": 269,
  "load": 2784,
  "loaded": 5047,
  "loading": 5718,
  "loaf": 7864,
  "loc": 8115,
  "local": 8659,
  "lock": 1921,
  "locked": 2759,
  "locks": 7015,
  "loe": 4908,
  "log": 2613,
  "logs": 4668,
  "lola": 4180,
  "lollipop": 2771,
  "lollipops": 5609,
  "lone": 1465,
  "loneliness": 8862,
  "lonely": 1470,
  "long": 526,
  "longer": 1906,
  "longest": 6718,
  "longhead": 8696,
  "loo": 266,
  "look": 497,
  "looked": 328,
  "looking": 854,
  "looks": 1132,
  "loop": 3780,
  "loops": 5784,
  "loose": 4724,
  "loosen": 8357,
  "lor": 7064,
  "los": 8224,
  "lose": 2453,
  "loser": 8670,
  "losers": 8453,
  "loses": 5872,
  "losing": 5489,
  "lost": 799,
  "lot": 450,
  "lotion": 2797,
  "lots": 627,
  "lotte": 8627,
  "lou": 4400,
  "loud": 677,
  "louder": 2674,
  "loudest": 5885,
  "loudly": 2868,
  "louise": 6374,
  "love": 656,
  "loved": 326,
  "lovely": 2026,
  "loves": 2129,
  "loving": 4802,
  "lovingly": 8702,
  "low": 2853,
  "lower": 6087,
  "lowered": 6336,
  "loyal": 2485,
  "loyalty": 8882,
  "lp": 259,
  "lpture": 5978,
  "lse": 7218,
  "lter": 3410,
  "lu": 3730,
  "luc": 6534,
  "luca": 7599,
  "lucas": 8322,
  "luck": 3864,
  "luckier": 8531,
  "luckily": 5542,
  "lucky": 1678,
  "lucy": 495,
  "lugg": 4058,
  "luggage": 4063,
  "luke": 5073,
  "lull": 6933,
  "lullaby": 7006,
  "lulu": 2857,
  "lumber": 3259,
  "lumberjack": 6994,
  "lumbery": 8103,
  "lump": 6229,
  "lun": 1225,
  "luna": 2055,
  "lunch": 1590,
  "lunchbox": 8614,
  "lunches": 8861,
  "lunchtime": 6770,
  "lung": 4478,
  "lunged": 7928,
  "lungs": 6819,
  "lupin": 7321,
  "lur": 7290,
  "lurking": 7494,
  "lush": 7495,
  "luxury": 4935,
  "lves": 2210,
  "lvia": 6805,
  "ly": 176,
  "lying": 2944,
  "m": 109,
  "ma": 198,
  "mabel": 7573,
  "mach": 1936,
  "machine": 2002,
  "machines": 5741,
  "mad": 1509,
  "maddie": 6953,
  "made": 394,
  "mag": 640,
  "magaz": 3346,
  "magazine": 3487,
  "magazines": 6734,
  "maged": 8312,
  "maggie": 4223,
  "magic": 695,
  "magical": 1645,
  "magically": 8258,
  "magician": 6597,
  "magn": 2619,
  "magnet": 2679,
  "magnets": 4977,
  "magnif": 7588,
  "magnifying": 7786,
  "magpie": 5917,
  "mail": 1408,
  "mailbox": 2530,
  "mailboxes": 7541,
  "mailed": 5316,
  "mailing": 6675,
  "mailman": 3792,
  "main": 7894,
  "maj": 7925,
  "majest": 8105,
  "majestic": 8851,
  "make": 358,
  "maker": 5779,
  "makes": 1287,
  "makeup": 3246,
  "making": 937,
  "mall": 4020,
  "mallow": 7745,
  "mallows": 7953,
  "mam": 5796,
  "mama": 1891,
  "mamma": 6254,
  "mammy": 7759,
  "man": 321,
  "manage": 4348,
  "managed": 3289,
  "manager": 8014,
  "mand": 3728,
  "mandy": 4512,
  "mane": 4925,
  "manners": 6458,
  "many": 460,
  "map": 2607,
  "mar": 1196,
  "marble": 3624,
  "marbles": 4860,
  "march": 2244,
  "marched": 3457,
  "marching": 4816,
  "marcus": 7838,
  "mare": 4782,
  "maria": 4558,
  "marie": 5204,
  "mark": 1198,
  "marked": 5589,
  "marker": 6354,
  "markers": 5957,
  "market": 2324,
  "marking": 8010,
  "marks": 4643,
  "marriage": 4166,
  "married": 4422,
  "marry": 2988,
  "marrying": 8403,
  "marsh": 6086,
  "marsha": 7422,
  "marshall": 8749,
  "marshmallows": 7954,
  "mart": 8497,
  "martha": 7102,
  "marve": 7555,
  "marveled": 8168,
  "mary": 2200,
  "mashed": 8417,
  "mask": 2217,
  "masks": 5282,
  "mass": 3946,
  "massage": 4140,
  "massages": 6422,
  "mast": 8582,
  "master": 4887,
  "masterpie": 5929,
  "masterpiece": 5954,
  "mat": 1148,
  "match": 1973,
  "matched": 4541,
  "matches": 3511,
  "matching": 4662,
  "mate": 7088,
  "mater": 5912,
  "materi": 6008,
  "material": 7402,
  "materials": 6730,
  "mates": 6343,
  "matey": 7996,
  "math": 3252,
  "mats": 7709,
  "matt": 3208,
  "matter": 2060,
  "mattered": 7916,
  "matters": 5768,
  "matthe": 8772,
  "mattress": 3358,
  "mattresses": 7146,
  "max": 339,
  "may": 2893,
  "maya": 6923,
  "maybe": 1118,
  "mayor": 6623,
  "maze": 2684,
  "mb": 2346,
  "mbers": 6553,
  "mbling": 4472,
  "mbre": 2834,
  "me": 342,
  "meadow": 3240,
  "meadows": 8394,
  "meal": 3072,
  "meals": 6353,
  "mean": 865,
  "meaning": 6350,
  "means": 3081,
  "meant": 2703,
  "meanwhile": 7294,
  "meas": 3855,
  "measure": 2233,
  "measured": 4369,
  "measuring": 4942,
  "meat": 3331,
  "meatballs": 7324,
  "mechan": 3682,
  "mechanic": 3704,
  "med": 1627,
  "medal": 3283,
  "medals": 6962,
  "medi": 4278,
  "mediately": 4283,
  "medic": 2299,
  "medicine": 2301,
  "meet": 1734,
  "meeting": 3697,
  "meetings": 7765,
  "meg": 5224,
  "megan": 5933,
  "mel": 1878,
  "melinda": 7650,
  "melissa": 6478,
  "melo": 8114,
  "melody": 8723,
  "melon": 2268,
  "melons": 8220,
  "melt": 3229,
  "melted": 4402,
  "melting": 4850,
  "melts": 7307,
  "members": 6557,
  "memor": 3464,
  "memories": 4411,
  "memory": 4318,
  "men": 3662,
  "mend": 4040,
  "ment": 2030,
  "mention": 4005,
  "mentioned": 4627,
  "ments": 6828,
  "menu": 4171,
  "meow": 4709,
  "meowed": 3663,
  "meowing": 6764,
  "meowny": 6441,
  "meows": 7923,
  "mer": 4399,
  "mered": 7689,
  "merma": 7380,
  "mermaids": 8853,
  "merry": 5493,
  "mes": 5051,
  "mesmer": 5848,
  "mesmerised": 7158,
  "mesmerized": 6584,
  "mess": 901,
  "message": 3469,
  "messages": 7427,
  "messed": 6866,
  "messes": 6272,
  "messier": 8316,
  "messy": 1879,
  "met": 761,
  "metal": 3294,
  "mi": 6088,
  "mia": 458,
  "mic": 2390,
  "mice": 4378,
  "michael": 6157,
  "mick": 7370,
  "micr": 3290,
  "micro": 3841,
  "microphone": 3291,
  "microsc": 3842,
  "microscope": 3843,
  "middle": 2666,
  "mies": 4969,
  "miest": 7442,
  "might": 1165,
  "mighty": 2335,
  "mike": 4089,
  "mikey": 8034,
  "mil": 1564,
  "mila": 7806,
  "mild": 2734,
  "miles": 6117,
  "milk": 1591,
  "mill": 2174,
  "miller": 6082,
  "millicent": 7387,
  "millie": 4388,
  "milly": 4300,
  "milo": 6795,
  "mimi": 1459,
  "min": 1540,
  "mina": 6784,
  "mind": 1902,
  "minded": 5738,
  "mindful": 7593,
  "minding": 6457,
  "minds": 7250,
  "mine": 1535,
  "miner": 3329,
  "mineral": 3605,
  "minerals": 5574,
  "ming": 1587,
  "mint": 3445,
  "mints": 6460,
  "minute": 3721,
  "minutes": 3178,
  "mir": 2079,
  "mira": 8655,
  "miracle": 8740,
  "mirror": 2140,
  "mis": 980,
  "mischie": 6162,
  "mischief": 8883,
  "mischievous": 6186,
  "mischievously": 8842,
  "miser": 2670,
  "miserable": 2671,
  "miss": 1435,
  "missed": 1796,
  "misses": 5264,
  "missile": 2873,
  "missing": 3978,
  "mission": 5135,
  "mist": 1769,
  "mistake": 1971,
  "mistakes": 3732,
  "mister": 4297,
  "misty": 8459,
  "mitt": 6639,
  "mitten": 2471,
  "mittens": 3751,
  "mitts": 8378,
  "mix": 1273,
  "mixed": 2216,
  "mixer": 3712,
  "mixes": 7913,
  "mixie": 7081,
  "mixing": 4592,
  "mixture": 7079,
  "mixy": 6409,
  "mm": 1899,
  "mmer": 2336,
  "mmm": 4972,
  "mmmm": 7706,
  "mo": 517,
  "moan": 8062,
  "moaned": 8678,
  "moat": 8237,
  "model": 3095,
  "models": 5901,
  "moder": 2824,
  "modern": 2850,
  "modest": 3143,
  "moira": 7785,
  "mold": 8548,
  "mole": 2778,
  "molly": 1799,
  "mom": 208,
  "moment": 1114,
  "moments": 4658,
  "momma": 5995,
  "mommies": 5548,
  "mommy": 673,
  "momo": 1716,
  "moms": 2274,
  "mon": 925,
  "money": 1518,
  "monica": 8175,
  "monkey": 1347,
  "monkeys": 3627,
  "monster": 1341,
  "monsters": 4901,
  "month": 7843,
  "months": 6242,
  "monty": 8162,
  "moo": 4537,
  "mood": 5632,
  "mooed": 6097,
  "moon": 1671,
  "moonlight": 6248,
  "moons": 6383,
  "mop": 2794,
  "mopping": 8257,
  "moppy": 6719,
  "mor": 767,
  "moral": 912,
  "more": 487,
  "morning": 1477,
  "mosp": 8810,
  "mosqu": 3141,
  "mosquito": 3146,
  "mosquitoes": 8854,
  "most": 1585,
  "mot": 2350,
  "mother": 1427,
  "motion": 5364,
  "motor": 2574,
  "motorcy": 3176,
  "motorcycle": 3368,
  "motorcycles": 6395,
  "motors": 7775,
  "mound": 7961,
  "mountain": 2348,
  "mountains": 4870,
  "mous": 7398,
  "mouse": 790,
  "mousy": 7629,
  "mout": 1218,
  "mouth": 1219,
  "mouths": 4531,
  "mov": 2525,
  "move": 944,
  "moved": 1433,
  "movements": 7979,
  "moves": 4234,
  "movie": 2718,
  "movies": 5421,
  "moving": 2373,
  "mow": 8606,
  "mp": 697,
  "mr": 1017,
  "mrs": 3649,
  "ms": 6211,
  "mu": 404,
  "much": 553,
  "mud": 1391,
  "muddy": 4560,
  "muff": 2261,
  "muffin": 2493,
  "muffins": 4783,
  "mug": 3019,
  "muggy": 6896,
  "mugs": 7069,
  "mule": 2782,
  "mum": 1192,
  "mummy": 2332,
  "munch": 5903,
  "munching": 6799,
  "mur": 7353,
  "murky": 7560,
  "mus": 1326,
  "muscle": 5177,
  "muscles": 4492,
  "museum": 2706,
  "mush": 2249,
  "mushroom": 2302,
  "mushrooms": 5694,
  "mushy": 6782,
  "music": 1386,
  "musician": 3723,
  "must": 1108,
  "mustache": 3378,
  "mustered": 7586,
  "mustn": 7722,
  "my": 307,
  "myself": 3955,
  "myster": 1884,
  "mysterious": 2221,
  "mystery": 3865,
  "n": 110,
  "na": 448,
  "nail": 3062,
  "nails": 5040,
  "nam": 233,
  "name": 1187,
  "named": 238,
  "names": 3747,
  "nana": 4250,
  "naomi": 8391,
  "nap": 1281,
  "napkin": 2686,
  "napkins": 5417,
  "napped": 6284,
  "napping": 4564,
  "naps": 5250,
  "nasty": 6663,
  "nat": 7694,
  "nate": 6786,
  "nation": 3495,
  "nations": 7966,
  "nature": 3615,
  "naughty": 1577,
  "navy": 3645,
  "nce": 3364,
  "nd": 129,
  "nda": 5962,
  "nday": 4379,
  "nde": 7814,
  "nder": 475,
  "ndles": 6842,
  "ndred": 7283,
  "ndy": 4508,
  "ne": 235,
  "near": 594,
  "nearby": 2077,
  "neare": 5800,
  "nearer": 8892,
  "nearest": 6056,
  "nearly": 8027,
  "neat": 3430,
  "neatly": 6197,
  "neck": 1665,
  "necklace": 2490,
  "necklaces": 5590,
  "necks": 7473,
  "nect": 6566,
  "nectar": 6654,
  "ned": 384,
  "need": 558,
  "needed": 997,
  "needle": 2820,
  "needles": 6147,
  "needs": 2579,
  "neig": 7971,
  "neigh": 2111,
  "neighb": 2118,
  "neighbor": 2720,
  "neighborhood": 4764,
  "neighbors": 4999,
  "neighbour": 4159,
  "neighbourhood": 5035,
  "neighbours": 7149,
  "neighed": 8604,
  "neither": 5275,
  "nel": 2617,
  "ner": 1277,
  "ners": 5034,
  "nervous": 2158,
  "nervously": 6762,
  "nesday": 3840,
  "ness": 2098,
  "nest": 1140,
  "nestled": 7998,
  "nests": 5380,
  "net": 1778,
  "network": 3389,
  "never": 633,
  "new": 368,
  "newfound": 6150,
  "news": 4376,
  "newspap": 3107,
  "newspaper": 3241,
  "newspapers": 6683,
  "next": 724,
  "ney": 3556,
  "ng": 905,
  "nger": 3263,
  "ni": 5014,
  "nibble": 7702,
  "nibbled": 6876,
  "nibbles": 6234,
  "nibbling": 7917,
  "nic": 2588,
  "nice": 527,
  "nicely": 2818,
  "nicer": 4871,
  "nicest": 8222,
  "nick": 5539,
  "nicola": 7958,
  "nie": 4988,
  "niece": 6864,
  "nies": 5294,
  "night": 964,
  "nightfall": 7312,
  "nightmare": 4805,
  "nightmares": 7520,
  "nights": 7443,
  "nina": 7484,
  "nine": 5388,
  "ning": 691,
  "nings": 8091,
  "nip": 7642,
  "nk": 5121,
  "nna": 6479,
  "nnah": 7558,
  "no": 363,
  "nobody": 3683,
  "nod": 2761,
  "nodded": 820,
  "nodding": 5818,
  "nods": 2776,
  "noelle": 8638,
  "noise": 816,
  "noises": 1763,
  "noisy": 2251,
  "noki": 8788,
  "none": 4526,
  "nood": 8152,
  "noodles": 8412,
  "noon": 4631,
  "nor": 7604,
  "nora": 7459,
  "norm": 2008,
  "normal": 2018,
  "north": 8377,
  "nose": 1602,
  "noses": 5440,
  "nosy": 2700,
  "not": 206,
  "note": 1760,
  "notebook": 3745,
  "notes": 5646,
  "nothing": 2061,
  "notice": 3361,
  "noticed": 1210,
  "notices": 8657,
  "noticing": 6384,
  "novel": 3251,
  "novels": 7011,
  "now": 548,
  "nowhere": 4585,
  "nown": 2162,
  "nt": 154,
  "ntastic": 7421,
  "ntly": 6492,
  "ntr": 6840,
  "ntrum": 7504,
  "nts": 1255,
  "nu": 5688,
  "num": 1616,
  "number": 1975,
  "numbered": 8525,
  "numbering": 8673,
  "numbers": 3061,
  "nur": 2852,
  "nurs": 7837,
  "nurse": 2950,
  "nursery": 7976,
  "nurses": 7866,
  "nut": 1642,
  "nuts": 2402,
  "nutty": 5769,
  "nuzz": 5828,
  "nuzzled": 6290,
  "nuzzles": 7820,
  "ny": 406,
  "o": 111,
  "oak": 2942,
  "oakley": 8048,
  "oar": 8144,
  "oard": 7420,
  "oars": 8217,
  "oasis": 4004,
  "oat": 4903,
  "oatmeal": 8167,
  "oats": 3639,
  "ob": 1607,
  "obedient": 2330,
  "obey": 5102,
  "obeyed": 6958,
  "obile": 2745,
  "object": 3362,
  "objects": 5879,
  "obser": 3702,
  "observe": 4206,
  "observed": 5399,
  "observing": 6637,
  "obst": 7284,
  "obstacle": 8031,
  "oc": 1705,
  "occ": 5997,
  "occas": 6096,
  "occasion": 7247,
  "occasions": 7199,
  "occol": 3809,
  "occoli": 3811,
  "oce": 2455,
  "ocean": 2462,
  "oceans": 8891,
  "octop": 2753,
  "octopus": 2829,
  "octopuses": 7198,
  "ocular": 8202,
  "oculars": 8203,
  "odd": 6947,
  "oe": 4425,
  "oebe": 7641,
  "oey": 6453,
  "of": 162,
  "off": 707,
  "offe": 2689,
  "offer": 4473,
  "offered": 3459,
  "offering": 6713,
  "offic": 7865,
  "office": 2940,
  "officer": 4825,
  "officers": 7910,
  "ofte": 210,
  "often": 3270,
  "og": 660,
  "oh": 1183,
  "oil": 3100,
  "oink": 6355,
  "ok": 1569,
  "okay": 902,
  "oke": 635,
  "ol": 1802,
  "ola": 7306,
  "old": 557,
  "older": 3851,
  "oline": 5649,
  "olive": 2933,
  "oliver": 6053,
  "olives": 4765,
  "olivia": 7672,
  "ollie": 1853,
  "olly": 2442,
  "olog": 3859,
  "om": 147,
  "omas": 4739,
  "omb": 6407,
  "ome": 256,
  "omed": 4163,
  "omeday": 4304,
  "omes": 2791,
  "omet": 365,
  "ometer": 3386,
  "omi": 8228,
  "oming": 5112,
  "omise": 6151,
  "ommend": 4052,
  "omobile": 2747,
  "on": 136,
  "ona": 8472,
  "once": 261,
  "ond": 2295,
  "one": 217,
  "oned": 8780,
  "ones": 2735,
  "onest": 1776,
  "oney": 1155,
  "ong": 346,
  "onge": 5450,
  "ongr": 6657,
  "onion": 3175,
  "onions": 6144,
  "online": 7123,
  "only": 1075,
  "onment": 6668,
  "ons": 1523,
  "ont": 2016,
  "onto": 1990,
  "onward": 6191,
  "onwards": 4992,
  "ony": 3397,
  "oo": 186,
  "oochy": 6725,
  "ood": 289,
  "ook": 420,
  "ooky": 8165,
  "ool": 708,
  "oom": 1122,
  "oomy": 2354,
  "oon": 857,
  "oop": 1962,
  "oops": 5235,
  "oose": 1688,
  "oosh": 5889,
  "op": 349,
  "opal": 8494,
  "opard": 2476,
  "opards": 8731,
  "ope": 1988,
  "oped": 8054,
  "open": 762,
  "opened": 671,
  "opening": 4945,
  "opens": 3531,
  "opera": 3971,
  "operation": 4317,
  "opes": 6324,
  "oph": 2046,
  "ophone": 3287,
  "opin": 4545,
  "opinion": 4751,
  "opinions": 6726,
  "opl": 3041,
  "ople": 642,
  "opp": 5673,
  "opped": 8293,
  "opposite": 6054,
  "ops": 5296,
  "opt": 7986,
  "opter": 3190,
  "or": 157,
  "ora": 5033,
  "orange": 1428,
  "oranges": 4301,
  "oray": 7693,
  "orchard": 7499,
  "ord": 1425,
  "ordan": 6955,
  "order": 2905,
  "ordered": 4556,
  "ordering": 8240,
  "orders": 7594,
  "ordinary": 2729,
  "ords": 5238,
  "ore": 274,
  "ored": 4437,
  "orence": 7157,
  "ores": 3911,
  "organ": 1831,
  "organize": 3324,
  "organized": 2518,
  "organizing": 5080,
  "orge": 3920,
  "original": 2401,
  "orin": 7310,
  "oring": 6219,
  "orious": 8733,
  "ork": 1961,
  "orm": 1191,
  "ormous": 2257,
  "orn": 890,
  "orname": 3204,
  "ornament": 3479,
  "ornaments": 5707,
  "orphanage": 8528,
  "orrow": 2099,
  "ors": 1713,
  "ort": 652,
  "orted": 4518,
  "orter": 6449,
  "ory": 3829,
  "os": 1393,
  "osaur": 2054,
  "oscope": 7424,
  "ose": 2643,
  "osed": 4852,
  "osite": 6031,
  "osity": 4906,
  "ossible": 5729,
  "ost": 1659,
  "ostri": 3281,
  "ostrich": 3413,
  "ostriches": 6838,
  "osure": 8052,
  "ot": 153,
  "ote": 2252,
  "oth": 454,
  "other": 322,
  "others": 910,
  "otherwise": 6258,
  "otion": 8160,
  "oto": 7393,
  "otter": 2875,
  "otters": 8350,
  "otto": 7857,
  "ou": 135,
  "ouch": 1637,
  "ouched": 7598,
  "oud": 438,
  "oug": 323,
  "ough": 699,
  "ought": 370,
  "oula": 7718,
  "ould": 223,
  "oun": 1238,
  "ounce": 5521,
  "ounced": 6618,
  "ound": 236,
  "ount": 962,
  "ountain": 1770,
  "oup": 1193,
  "ouple": 7395,
  "our": 531,
  "oura": 2357,
  "ourage": 2965,
  "ouraged": 7267,
  "ourn": 1753,
  "ours": 4406,
  "ourselves": 4661,
  "ous": 482,
  "ouse": 371,
  "out": 246,
  "outcome": 7597,
  "outdo": 5571,
  "outdoors": 5639,
  "outf": 5900,
  "outfit": 7408,
  "outfits": 6616,
  "outs": 8095,
  "outside": 511,
  "outsmart": 8778,
  "ove": 1676,
  "oved": 4137,
  "oven": 1808,
  "over": 654,
  "overcome": 6041,
  "overflowing": 8710,
  "overjoyed": 5544,
  "overwhelmed": 8591,
  "oving": 7663,
  "ow": 171,
  "owed": 2212,
  "ower": 1223,
  "owl": 792,
  "owls": 7044,
  "own": 334,
  "owned": 4912,
  "owner": 1474,
  "owners": 6661,
  "owning": 8305,
  "owns": 7661,
  "owny": 6192,
  "ox": 7295,
  "oxy": 3374,
  "oxygen": 3635,
  "oy": 3516,
  "oyster": 3743,
  "oysters": 5945,
  "p": 112,
  "pa": 814,
  "pace": 8468,
  "pack": 2036,
  "package": 3443,
  "packages": 6298,
  "packed": 3224,
  "packet": 6731,
  "packing": 5243,
  "pad": 4505,
  "padd": 5588,
  "paddle": 5540,
  "paddled": 6022,
  "paddling": 7723,
  "pads": 8858,
  "page": 3814,
  "pages": 3801,
  "paid": 4134,
  "paige": 7730,
  "pain": 833,
  "paint": 1217,
  "paintbrush": 5857,
  "painted": 2258,
  "painter": 3145,
  "painters": 8650,
  "painting": 2596,
  "paintings": 5046,
  "paints": 4974,
  "pair": 3694,
  "pajamas": 5288,
  "pal": 3103,
  "palace": 3157,
  "pale": 3170,
  "palet": 8300,
  "palette": 8330,
  "palm": 4417,
  "palms": 8299,
  "pam": 5523,
  "pamela": 8482,
  "pan": 1913,
  "pancakes": 6183,
  "pand": 3967,
  "panda": 4054,
  "pandas": 7431,
  "pandy": 3429,
  "pang": 8779,
  "panic": 3803,
  "panicked": 6548,
  "pans": 4967,
  "pant": 6794,
  "panting": 7890,
  "pants": 2648,
  "pap": 955,
  "papa": 3705,
  "papaya": 6939,
  "paper": 1059,
  "papers": 3343,
  "par": 698,
  "parable": 7937,
  "parade": 3228,
  "paramed": 6936,
  "paramedics": 6945,
  "pare": 1293,
  "parent": 3489,
  "parents": 1389,
  "park": 347,
  "parked": 4930,
  "parking": 8290,
  "parrot": 2383,
  "part": 1793,
  "parted": 6168,
  "partic": 5532,
  "particular": 5746,
  "particularly": 7178,
  "parties": 4841,
  "parts": 4024,
  "party": 882,
  "pas": 1903,
  "pass": 2190,
  "passe": 6976,
  "passed": 2569,
  "passeng": 8243,
  "passenger": 8512,
  "passengers": 8441,
  "passes": 7128,
  "passing": 5644,
  "passion": 8075,
  "passport": 3367,
  "passports": 5028,
  "past": 1566,
  "pasta": 2457,
  "paste": 4026,
  "pastel": 4042,
  "pastels": 5171,
  "pastor": 7576,
  "pastries": 5629,
  "pastry": 3347,
  "pat": 1207,
  "patch": 3121,
  "patches": 6296,
  "path": 1731,
  "paths": 5318,
  "patience": 5044,
  "patient": 1686,
  "patiently": 5006,
  "patted": 5505,
  "pattern": 3076,
  "patterns": 4618,
  "paul": 3844,
  "paula": 7610,
  "pause": 5139,
  "paused": 4333,
  "paw": 1437,
  "paws": 2186,
  "pay": 2166,
  "paying": 5066,
  "payoff": 8264,
  "pays": 6628,
  "pe": 499,
  "pea": 8177,
  "peace": 1752,
  "peaceful": 2214,
  "peacefully": 6156,
  "peach": 2749,
  "peaches": 4354,
  "peanut": 2854,
  "peanuts": 4386,
  "pear": 2504,
  "pearl": 4256,
  "pearls": 7354,
  "pears": 5111,
  "peas": 5284,
  "pebble": 2127,
  "pebbles": 4474,
  "pec": 625,
  "peck": 7981,
  "pecked": 5855,
  "pecks": 6906,
  "pect": 1897,
  "pected": 676,
  "pecting": 6085,
  "peculi": 8232,
  "peculiar": 8248,
  "ped": 2885,
  "pedal": 4485,
  "pedaled": 6680,
  "pedaling": 7481,
  "pedals": 4793,
  "pee": 3119,
  "peek": 3571,
  "peeked": 3498,
  "peeking": 5462,
  "peeks": 7292,
  "peel": 4665,
  "peeled": 6360,
  "peeling": 8209,
  "peels": 7224,
  "peep": 5975,
  "peeped": 8866,
  "peered": 5270,
  "peering": 8201,
  "pen": 1071,
  "penc": 2037,
  "pencil": 2039,
  "pencils": 4818,
  "penelope": 6850,
  "pengu": 2929,
  "penguin": 3301,
  "penguins": 5056,
  "penney": 8268,
  "pennies": 6536,
  "penny": 2213,
  "pens": 6571,
  "people": 645,
  "pepper": 2431,
  "peppers": 5054,
  "per": 1052,
  "perched": 5317,
  "percy": 5939,
  "perf": 1157,
  "perfect": 1405,
  "perfectly": 4604,
  "perform": 2315,
  "performance": 6902,
  "performed": 5638,
  "performer": 6789,
  "performers": 8827,
  "performing": 5902,
  "perfume": 3984,
  "perm": 3519,
  "permission": 4943,
  "permit": 4098,
  "permitted": 6845,
  "perri": 7369,
  "pers": 1534,
  "persis": 2758,
  "persisten": 7212,
  "persistence": 7234,
  "persistent": 2830,
  "person": 1907,
  "pes": 2317,
  "pet": 1153,
  "petal": 6932,
  "petals": 4160,
  "pete": 3106,
  "peter": 2977,
  "petey": 8247,
  "pets": 4613,
  "petted": 4524,
  "ph": 1233,
  "phanage": 8446,
  "phant": 1493,
  "pher": 7950,
  "phillip": 6869,
  "phoebe": 8088,
  "phone": 1880,
  "phones": 7773,
  "phot": 2598,
  "photo": 3018,
  "photos": 4710,
  "pi": 6631,
  "piano": 3423,
  "pic": 489,
  "pick": 956,
  "picked": 674,
  "picking": 3248,
  "pickle": 8374,
  "picks": 2489,
  "picnic": 2608,
  "picnics": 7995,
  "picture": 749,
  "pictures": 1215,
  "pid": 2256,
  "pie": 939,
  "piece": 1038,
  "pieces": 1396,
  "pies": 4738,
  "pig": 1355,
  "pige": 2567,
  "pigeon": 2678,
  "pigeons": 6209,
  "piggy": 5312,
  "piglet": 6779,
  "piglets": 8143,
  "pigs": 4185,
  "pile": 1526,
  "piled": 8263,
  "piles": 4565,
  "pill": 1538,
  "pillar": 1939,
  "pillow": 1846,
  "pillowcase": 8552,
  "pillows": 4691,
  "pills": 6711,
  "pilot": 3308,
  "pilots": 7430,
  "pin": 1923,
  "pinch": 3496,
  "pinched": 4617,
  "pinches": 8310,
  "pinching": 6037,
  "pinchy": 8469,
  "pine": 3001,
  "pines": 8270,
  "piney": 7867,
  "pink": 1152,
  "pinky": 4760,
  "pins": 5287,
  "pip": 2763,
  "pipe": 3545,
  "pipes": 7456,
  "pipp": 3342,
  "pippa": 5175,
  "pippin": 3738,
  "pippy": 6803,
  "pir": 2542,
  "pirate": 3030,
  "pirates": 4468,
  "pistol": 3379,
  "pistols": 7846,
  "pit": 3082,
  "pitch": 3900,
  "pite": 5522,
  "pizza": 2057,
  "pl": 168,
  "place": 706,
  "placed": 4011,
  "places": 2089,
  "placing": 8415,
  "plain": 6004,
  "plan": 1134,
  "plane": 1543,
  "planes": 3817,
  "planet": 3507,
  "planets": 5189,
  "plank": 7713,
  "planks": 8346,
  "planned": 4320,
  "planning": 5596,
  "plans": 6901,
  "plant": 1158,
  "planted": 4236,
  "planting": 5930,
  "plants": 1905,
  "plastic": 3698,
  "plat": 7811,
  "plate": 1982,
  "plates": 4208,
  "platform": 7868,
  "play": 174,
  "playdate": 7020,
  "played": 301,
  "player": 3626,
  "players": 5562,
  "playful": 2532,
  "playground": 3149,
  "playhouse": 6253,
  "playing": 399,
  "playroom": 6177,
  "plays": 4246,
  "playtime": 4567,
  "ple": 1286,
  "pleaded": 5898,
  "pleasant": 7967,
  "please": 907,
  "pleased": 3651,
  "pleasure": 6076,
  "plent": 5320,
  "plenty": 5355,
  "plopped": 8309,
  "plot": 6249,
  "plucked": 6023,
  "plug": 6585,
  "plugged": 6769,
  "plugs": 8430,
  "plum": 7058,
  "plumber": 7208,
  "plums": 8754,
  "plun": 7879,
  "plunge": 8782,
  "plus": 8480,
  "po": 478,
  "pocket": 1647,
  "pockets": 5351,
  "poem": 3024,
  "poems": 4619,
  "poin": 1358,
  "point": 3607,
  "pointed": 2038,
  "pointing": 2920,
  "points": 4129,
  "pointy": 5407,
  "poison": 3944,
  "pok": 7386,
  "poke": 3408,
  "poked": 3720,
  "pokes": 6334,
  "pokie": 7483,
  "poking": 5055,
  "pol": 1329,
  "polar": 5403,
  "pole": 3017,
  "poles": 8516,
  "police": 2561,
  "policeman": 5401,
  "policy": 8894,
  "polish": 3276,
  "polished": 4899,
  "polishing": 5042,
  "polite": 2168,
  "politely": 6531,
  "polly": 3820,
  "pon": 6377,
  "pond": 879,
  "ponds": 8110,
  "ponies": 6439,
  "pony": 3596,
  "ponytail": 7533,
  "poochy": 7273,
  "pool": 1953,
  "poon": 3444,
  "poop": 7244,
  "poor": 2093,
  "pop": 1595,
  "popcorn": 2399,
  "popped": 3527,
  "poppies": 7336,
  "poppy": 1935,
  "pops": 5398,
  "popsic": 8113,
  "popular": 2629,
  "por": 3186,
  "porch": 3303,
  "porcupine": 7525,
  "port": 3657,
  "pose": 7419,
  "poses": 8813,
  "posit": 8126,
  "positive": 8675,
  "poss": 8726,
  "posse": 6440,
  "possess": 6461,
  "possession": 7700,
  "possessions": 8344,
  "possible": 5283,
  "post": 2705,
  "postc": 6761,
  "postcard": 8545,
  "postcards": 7737,
  "poster": 5593,
  "postman": 7698,
  "posts": 7107,
  "pot": 1221,
  "potato": 2189,
  "potatoes": 4453,
  "potential": 8511,
  "potion": 5430,
  "pots": 4861,
  "pouch": 6670,
  "poula": 8253,
  "pound": 7080,
  "pounds": 8323,
  "pour": 1911,
  "poured": 2752,
  "pouring": 5560,
  "pours": 6562,
  "pout": 5336,
  "pouted": 6146,
  "pow": 2680,
  "powder": 2937,
  "power": 1644,
  "powerful": 2083,
  "powerless": 8868,
  "powers": 5321,
  "pp": 181,
  "pped": 444,
  "pper": 1775,
  "ppers": 4884,
  "ppies": 6428,
  "pping": 1563,
  "ppy": 1061,
  "pr": 417,
  "pra": 4637,
  "pract": 1850,
  "practice": 3438,
  "practiced": 2537,
  "practices": 8526,
  "practicing": 5511,
  "practised": 7039,
  "praised": 4755,
  "prank": 7096,
  "pray": 2051,
  "prayed": 3839,
  "prayer": 5608,
  "prayers": 5724,
  "praying": 4864,
  "pre": 1473,
  "prec": 5118,
  "precious": 5215,
  "prep": 3144,
  "prepare": 3942,
  "prepared": 4620,
  "preparing": 6578,
  "prese": 2279,
  "present": 2755,
  "presented": 6522,
  "presents": 4257,
  "press": 2591,
  "pressed": 3439,
  "presses": 6050,
  "pressing": 6895,
  "pret": 477,
  "pretend": 1030,
  "pretended": 1922,
  "pretending": 3136,
  "pretends": 5443,
  "prett": 4332,
  "prettier": 5178,
  "prettiest": 5001,
  "pretty": 546,
  "prevent": 3490,
  "prevented": 5963,
  "prey": 7993,
  "pri": 1883,
  "price": 3872,
  "prices": 8865,
  "prick": 5845,
  "prickly": 5999,
  "pride": 5067,
  "prin": 966,
  "prince": 1304,
  "princess": 1726,
  "princesses": 5254,
  "print": 1937,
  "printed": 4044,
  "printer": 4188,
  "printing": 5861,
  "prints": 3989,
  "printy": 7296,
  "prize": 2392,
  "prized": 7753,
  "prizes": 7754,
  "pro": 1363,
  "probably": 6464,
  "proble": 1687,
  "problem": 1689,
  "problems": 3770,
  "proce": 7030,
  "process": 7465,
  "prod": 7647,
  "project": 5070,
  "prom": 1033,
  "promise": 1570,
  "promised": 1380,
  "promises": 5397,
  "promising": 7751,
  "prop": 4919,
  "proper": 4985,
  "properly": 5345,
  "property": 7784,
  "prot": 1912,
  "protect": 2152,
  "protected": 5133,
  "protecting": 5122,
  "protection": 7554,
  "protector": 8890,
  "protects": 7277,
  "protein": 7901,
  "proud": 670,
  "proudly": 3778,
  "prov": 3192,
  "prove": 7066,
  "proved": 7518,
  "provide": 3827,
  "provided": 4936,
  "providing": 6954,
  "prun": 2527,
  "prune": 3960,
  "prunes": 3486,
  "pruning": 8666,
  "pry": 8877,
  "ps": 3010,
  "pt": 748,
  "pted": 4353,
  "ptop": 6126,
  "pu": 490,
  "puck": 7085,
  "pudd": 1375,
  "pudding": 8191,
  "puddle": 1497,
  "puddles": 3756,
  "puff": 5964,
  "puffed": 8127,
  "puffy": 8080,
  "pull": 872,
  "pulled": 1175,
  "pulling": 4344,
  "pulls": 3782,
  "pump": 2207,
  "pumpkin": 2379,
  "pumpkins": 5483,
  "pun": 3195,
  "punish": 4049,
  "punished": 4434,
  "punishment": 6182,
  "pup": 3923,
  "pupil": 4753,
  "pupils": 6905,
  "puppies": 8179,
  "puppy": 1725,
  "pur": 1272,
  "purp": 6256,
  "purple": 1489,
  "purpose": 6340,
  "purr": 5203,
  "purred": 5128,
  "purring": 8236,
  "purrkins": 8408,
  "purrs": 6266,
  "purse": 3169,
  "pus": 2764,
  "push": 1488,
  "pushed": 1094,
  "pushes": 3789,
  "pushing": 3997,
  "puss": 7335,
  "put": 402,
  "puts": 2045,
  "putting": 4164,
  "puzz": 1845,
  "puzzle": 2159,
  "puzzled": 6656,
  "puzzles": 4016,
  "py": 6638,
  "q": 113,
  "qu": 484,
  "quack": 4244,
  "quacked": 5065,
  "quacking": 6774,
  "quacks": 8147,
  "quacky": 7403,
  "quake": 4268,
  "quar": 2877,
  "quarrel": 2917,
  "quarreled": 6931,
  "quarreling": 5276,
  "que": 982,
  "queen": 1924,
  "queens": 6250,
  "queeny": 7187,
  "quence": 5635,
  "quest": 2087,
  "question": 3036,
  "questions": 3162,
  "qui": 1282,
  "quick": 1144,
  "quickly": 1245,
  "quid": 5005,
  "quiet": 1284,
  "quieter": 8005,
  "quietly": 4275,
  "quilt": 7242,
  "quincy": 8474,
  "quit": 3009,
  "quite": 4148,
  "quiz": 3961,
  "quizzes": 8117,
  "r": 114,
  "ra": 260,
  "rabbit": 789,
  "rabbits": 4398,
  "rac": 5362,
  "raccoon": 5631,
  "race": 967,
  "raced": 2553,
  "racer": 8085,
  "racers": 7794,
  "races": 6658,
  "rachel": 6396,
  "racing": 4062,
  "rack": 6743,
  "ract": 1486,
  "racted": 8397,
  "rad": 1784,
  "radio": 2731,
  "radish": 2849,
  "radishes": 4858,
  "rae": 7172,
  "raft": 2633,
  "rag": 3471,
  "rags": 7606,
  "rail": 3617,
  "railing": 8380,
  "rails": 6032,
  "rain": 777,
  "rainbow": 1682,
  "rainbows": 5249,
  "rainco": 7764,
  "raincoat": 7997,
  "raindr": 5927,
  "raindrops": 5959,
  "rained": 3915,
  "raining": 4165,
  "rains": 5744,
  "rainy": 5932,
  "raise": 3870,
  "raised": 4481,
  "raises": 8272,
  "raising": 7489,
  "rake": 3424,
  "raked": 8092,
  "raking": 6785,
  "ralph": 6515,
  "ramp": 8223,
  "ran": 410,
  "ranch": 3917,
  "rang": 4456,
  "ranger": 5492,
  "rant": 3856,
  "rare": 2288,
  "rarely": 8149,
  "rat": 2582,
  "rated": 2228,
  "rather": 5934,
  "rats": 6288,
  "rav": 7382,
  "raven": 2576,
  "ravi": 7423,
  "raw": 8544,
  "ray": 1084,
  "rays": 6148,
  "raz": 3550,
  "razor": 3554,
  "rd": 8852,
  "re": 134,
  "reach": 1126,
  "reached": 1073,
  "reaches": 4260,
  "reaching": 5396,
  "react": 8793,
  "read": 998,
  "reading": 3467,
  "reads": 5513,
  "ready": 1074,
  "real": 900,
  "realise": 6891,
  "realised": 3380,
  "reality": 7532,
  "realize": 4907,
  "realized": 1413,
  "realizes": 6835,
  "realizing": 6459,
  "really": 1344,
  "ream": 612,
  "reapp": 6583,
  "reappear": 8424,
  "reappeared": 7697,
  "reason": 5965,
  "reass": 6797,
  "reassured": 8444,
  "reat": 4290,
  "reats": 8663,
  "rebuild": 7450,
  "rec": 1723,
  "rece": 3769,
  "receive": 4410,
  "received": 4839,
  "recip": 6765,
  "recipe": 7280,
  "reckless": 6818,
  "recog": 3907,
  "recogn": 3908,
  "recognize": 4409,
  "recognized": 5037,
  "recommend": 4056,
  "recommended": 6078,
  "record": 2448,
  "recorded": 4838,
  "recorder": 5611,
  "recording": 5210,
  "records": 8501,
  "rect": 4365,
  "rectangle": 6401,
  "red": 473,
  "ree": 788,
  "reech": 8404,
  "reed": 949,
  "reef": 4081,
  "reen": 2420,
  "reena": 8197,
  "ref": 4397,
  "refe": 6149,
  "referee": 6218,
  "reflect": 5357,
  "reflection": 5591,
  "refre": 5148,
  "refreshed": 5580,
  "refreshing": 7092,
  "refrigerator": 3212,
  "refu": 4712,
  "refuse": 4990,
  "refused": 3620,
  "refuses": 8172,
  "refusing": 7768,
  "reg": 2072,
  "reginald": 6546,
  "regret": 3846,
  "regretted": 5795,
  "regular": 2770,
  "reind": 3913,
  "reindeer": 3919,
  "rejoiced": 8485,
  "rel": 776,
  "relax": 2427,
  "relaxed": 4494,
  "relaxing": 6141,
  "rele": 4986,
  "release": 4360,
  "released": 5187,
  "releasing": 7783,
  "reliable": 2722,
  "relie": 2243,
  "relief": 5618,
  "relieved": 2360,
  "reluct": 5100,
  "reluctantly": 5124,
  "rely": 6918,
  "rem": 757,
  "remain": 3757,
  "remained": 4418,
  "remem": 876,
  "remember": 893,
  "remembered": 1182,
  "remembering": 5575,
  "remembers": 4792,
  "remind": 2531,
  "reminded": 3857,
  "reminder": 5140,
  "reminding": 6019,
  "reminds": 5982,
  "remote": 4859,
  "remove": 3740,
  "removed": 4873,
  "remy": 1838,
  "ren": 1356,
  "rench": 8181,
  "render": 3636,
  "renee": 7822,
  "rep": 2528,
  "repa": 5469,
  "repair": 2898,
  "repaired": 5503,
  "repairing": 8276,
  "repairs": 6979,
  "repe": 2845,
  "repeat": 3794,
  "repeated": 4578,
  "repeating": 6188,
  "repeats": 6153,
  "repl": 1092,
  "replace": 3898,
  "replaced": 5508,
  "replied": 1167,
  "reply": 5236,
  "report": 8689,
  "request": 4298,
  "requested": 5327,
  "res": 1442,
  "resa": 6952,
  "resc": 3239,
  "rescue": 3759,
  "rescued": 5093,
  "rescuing": 7676,
  "resist": 3710,
  "resisted": 7090,
  "resp": 4735,
  "respect": 2198,
  "respected": 6178,
  "respectful": 3609,
  "respecting": 8020,
  "respon": 6525,
  "respond": 6379,
  "responded": 7687,
  "respons": 5680,
  "response": 6622,
  "responsibil": 8205,
  "responsibility": 8620,
  "responsible": 5960,
  "ress": 795,
  "ressed": 8634,
  "resser": 8829,
  "resses": 4190,
  "rest": 948,
  "restau": 3909,
  "restaurant": 3910,
  "rested": 4723,
  "resting": 4536,
  "restless": 3044,
  "restore": 3548,
  "restored": 4993,
  "restoring": 7418,
  "result": 4636,
  "results": 6134,
  "ret": 434,
  "rett": 7539,
  "retur": 1943,
  "return": 3083,
  "returned": 2811,
  "returning": 6532,
  "reun": 6978,
  "reunited": 7301,
  "reve": 3939,
  "reveal": 3998,
  "revealed": 4914,
  "reveals": 8211,
  "rever": 5990,
  "reverse": 3553,
  "reversed": 6089,
  "rew": 917,
  "reward": 3384,
  "rewarded": 5392,
  "rewarding": 8799,
  "rewards": 6596,
  "rework": 3253,
  "rex": 2182,
  "rey": 5584,
  "rhinoceros": 3222,
  "rhythm": 4476,
  "ri": 172,
  "ria": 6279,
  "riage": 4097,
  "ribb": 3147,
  "ribbit": 6135,
  "ribbon": 3564,
  "ribbons": 5072,
  "ric": 7714,
  "rican": 3334,
  "rice": 3320,
  "rich": 1969,
  "riches": 6941,
  "richest": 8320,
  "rick": 6444,
  "ricky": 6965,
  "rico": 7407,
  "rid": 3004,
  "ride": 1301,
  "rider": 7349,
  "rides": 5164,
  "riding": 3924,
  "rie": 6470,
  "ried": 385,
  "riend": 199,
  "rier": 8099,
  "ries": 1263,
  "rig": 6423,
  "right": 926,
  "rightful": 8541,
  "ril": 8438,
  "riley": 8598,
  "rill": 3031,
  "rily": 8327,
  "rin": 7529,
  "ring": 1783,
  "ringe": 7886,
  "ringing": 4480,
  "rings": 5239,
  "rious": 6314,
  "rip": 5585,
  "ripe": 5576,
  "ripped": 4679,
  "rir": 7869,
  "riri": 7875,
  "ris": 5411,
  "rise": 3340,
  "risen": 8806,
  "rises": 7103,
  "rising": 5650,
  "risk": 5910,
  "risks": 6650,
  "risky": 8158,
  "rita": 7097,
  "river": 1327,
  "riverbank": 6887,
  "rivers": 6756,
  "rixie": 7782,
  "rm": 657,
  "rmometer": 3409,
  "ro": 294,
  "road": 1398,
  "roads": 4591,
  "roamed": 7927,
  "roar": 2270,
  "roared": 3671,
  "roaring": 4813,
  "roars": 6729,
  "rob": 1532,
  "robber": 5793,
  "robbers": 6968,
  "robbie": 8574,
  "robby": 4511,
  "robe": 2286,
  "robert": 5217,
  "robin": 5782,
  "robo": 5248,
  "robot": 1633,
  "robots": 6224,
  "rocco": 7379,
  "rock": 542,
  "rocked": 5752,
  "rocket": 1636,
  "rockets": 5162,
  "rocking": 5305,
  "rocks": 1365,
  "rocky": 4655,
  "rod": 3225,
  "rode": 3165,
  "rods": 6348,
  "role": 8838,
  "roles": 7774,
  "roll": 1064,
  "rolled": 1492,
  "rollie": 5244,
  "rolling": 3330,
  "rolls": 5535,
  "rolly": 7189,
  "rolo": 7400,
  "ron": 2817,
  "roof": 2573,
  "roofs": 7383,
  "room": 513,
  "rooms": 3880,
  "root": 3351,
  "roots": 4582,
  "rope": 1451,
  "ropes": 4801,
  "ropy": 7478,
  "ror": 2105,
  "rory": 7640,
  "rosa": 7134,
  "rose": 1908,
  "roses": 5441,
  "rosie": 4527,
  "ross": 1278,
  "rot": 1290,
  "rotted": 8325,
  "rotten": 6608,
  "rotting": 5577,
  "rough": 2266,
  "round": 353,
  "rout": 7662,
  "routine": 8487,
  "rover": 5024,
  "row": 1296,
  "rowave": 8798,
  "rowing": 7543,
  "rows": 5863,
  "roy": 2320,
  "rr": 4573,
  "rrr": 7095,
  "rrrrr": 7671,
  "rs": 4612,
  "ru": 887,
  "rub": 3074,
  "rubbed": 3288,
  "rubber": 3087,
  "rubbing": 6051,
  "rubs": 5892,
  "ruby": 4316,
  "ruck": 7742,
  "rucksack": 8043,
  "ruction": 8738,
  "rude": 1691,
  "rudy": 5805,
  "ruff": 5582,
  "ruffles": 7416,
  "rufus": 6450,
  "rug": 2234,
  "ruin": 4685,
  "ruined": 2623,
  "ruining": 5914,
  "ruins": 8711,
  "rul": 4252,
  "rule": 4965,
  "ruled": 8844,
  "ruler": 4330,
  "rules": 3660,
  "rum": 5071,
  "rumble": 5369,
  "rumbling": 8063,
  "rummaged": 8461,
  "run": 529,
  "runner": 6514,
  "running": 1065,
  "runny": 8872,
  "runs": 1520,
  "rup": 6010,
  "rupted": 8171,
  "rush": 4127,
  "rushed": 3878,
  "rushing": 6942,
  "russe": 7417,
  "russel": 7454,
  "rust": 5068,
  "rustling": 6807,
  "rusty": 5721,
  "ruth": 7977,
  "ry": 271,
  "rya": 6981,
  "ryan": 6989,
  "s": 115,
  "sa": 141,
  "sabrina": 8283,
  "sack": 1485,
  "sacks": 7607,
  "sad": 317,
  "sadder": 6630,
  "sadie": 5904,
  "sadly": 3536,
  "sadness": 5097,
  "saf": 3183,
  "safari": 4420,
  "safe": 644,
  "safely": 3128,
  "safer": 4920,
  "safety": 4525,
  "said": 178,
  "sail": 1452,
  "sailboat": 6798,
  "sailed": 2699,
  "sailing": 4214,
  "sailor": 2785,
  "sailors": 6701,
  "sails": 5519,
  "sal": 1717,
  "salad": 2298,
  "sale": 5622,
  "sally": 743,
  "salmon": 8860,
  "salon": 6967,
  "salsa": 8766,
  "salt": 3073,
  "salty": 5789,
  "sam": 350,
  "samantha": 7237,
  "same": 1528,
  "sammy": 2319,
  "samuel": 8626,
  "sand": 874,
  "sandals": 8458,
  "sandbox": 3795,
  "sandcast": 3766,
  "sandcastle": 3861,
  "sandcastles": 7674,
  "sandpit": 6315,
  "sandw": 1825,
  "sandwich": 2191,
  "sandwiches": 3668,
  "sandy": 3713,
  "sang": 1403,
  "sank": 5434,
  "sant": 5059,
  "santa": 5060,
  "sapl": 8876,
  "sara": 709,
  "sarah": 1420,
  "sash": 8180,
  "sasha": 7835,
  "sat": 821,
  "satis": 5602,
  "satisfaction": 7921,
  "satisfied": 6045,
  "saturday": 6612,
  "sauce": 3026,
  "saus": 2693,
  "sausage": 3189,
  "sausages": 4557,
  "sav": 6487,
  "savanna": 7165,
  "save": 1864,
  "saved": 1933,
  "saves": 7840,
  "saving": 3858,
  "saw": 222,
  "say": 387,
  "sayid": 7727,
  "saying": 2780,
  "says": 472,
  "sc": 332,
  "scale": 2625,
  "scales": 5125,
  "scaly": 8311,
  "scamp": 6632,
  "scampered": 7035,
  "scampi": 8661,
  "scap": 2050,
  "scar": 2132,
  "scare": 2290,
  "scared": 421,
  "scares": 7906,
  "scarf": 2255,
  "scarier": 8840,
  "scaring": 4741,
  "scarves": 5308,
  "scary": 1145,
  "scatter": 2464,
  "scattered": 4093,
  "scattering": 5078,
  "sce": 5751,
  "scene": 7623,
  "scener": 7305,
  "scenery": 7308,
  "scent": 6655,
  "school": 1483,
  "science": 8129,
  "scientist": 8090,
  "scissors": 1991,
  "sco": 2232,
  "scold": 3963,
  "scolded": 4276,
  "scolding": 8341,
  "scolds": 6672,
  "scoop": 4218,
  "scooped": 5104,
  "scooping": 8294,
  "scoops": 7860,
  "scoot": 2846,
  "scooter": 3210,
  "scooters": 5049,
  "score": 4078,
  "scored": 6131,
  "scores": 8256,
  "scowl": 8124,
  "scr": 2535,
  "scra": 6006,
  "scrambled": 8006,
  "scraped": 6875,
  "scratch": 4157,
  "scratched": 4757,
  "scratches": 5566,
  "scratching": 6380,
  "scre": 7323,
  "scream": 1487,
  "screamed": 1948,
  "screaming": 4874,
  "screams": 4747,
  "screec": 8302,
  "screeched": 8381,
  "screen": 2655,
  "screw": 3307,
  "screwd": 6529,
  "screwdri": 6561,
  "screwdriver": 6609,
  "screws": 6365,
  "scri": 8554,
  "scru": 4647,
  "scrub": 5976,
  "scrubbed": 4772,
  "scrubbing": 8130,
  "scrunch": 7935,
  "scu": 5971,
  "sculpture": 6012,
  "sculptures": 7721,
  "scur": 4946,
  "scurried": 5442,
  "scurry": 6418,
  "scurrying": 6542,
  "se": 216,
  "sea": 1234,
  "seagull": 4954,
  "seagulls": 6558,
  "seal": 2472,
  "sealed": 8681,
  "seals": 6587,
  "sean": 7617,
  "sear": 1554,
  "search": 2059,
  "searched": 2509,
  "searching": 3655,
  "seas": 3994,
  "seashe": 8599,
  "season": 4392,
  "seasons": 6194,
  "seat": 1639,
  "seats": 4154,
  "seaweed": 7082,
  "sec": 1434,
  "second": 4102,
  "seconds": 6917,
  "secret": 1455,
  "secretly": 8074,
  "secrets": 4944,
  "section": 7984,
  "secure": 6311,
  "sed": 556,
  "see": 366,
  "seed": 1580,
  "seeds": 2418,
  "seeing": 4368,
  "seek": 1788,
  "seeker": 5647,
  "seeking": 7200,
  "seem": 3359,
  "seemed": 1918,
  "seems": 4928,
  "seen": 1156,
  "sees": 1109,
  "seesaw": 5457,
  "sel": 1823,
  "self": 824,
  "selfish": 1861,
  "sell": 2287,
  "seller": 8189,
  "selling": 4095,
  "selves": 2440,
  "send": 2626,
  "sending": 5266,
  "sens": 6003,
  "sensation": 6252,
  "sense": 5299,
  "sent": 3688,
  "sentence": 8317,
  "separ": 3260,
  "separate": 3686,
  "separated": 5268,
  "sequence": 5670,
  "ser": 1766,
  "serious": 2627,
  "seriously": 7799,
  "serv": 6462,
  "servant": 7670,
  "servants": 7905,
  "serve": 3267,
  "served": 4561,
  "serves": 8338,
  "service": 8151,
  "serving": 8057,
  "ses": 1376,
  "set": 1214,
  "seth": 7934,
  "sets": 6611,
  "sett": 4263,
  "setting": 4583,
  "settle": 3954,
  "settled": 4381,
  "settling": 7496,
  "seum": 2694,
  "seven": 5085,
  "several": 6749,
  "sew": 4043,
  "sewed": 5753,
  "sewing": 5813,
  "sh": 229,
  "sha": 7652,
  "shade": 2757,
  "shadow": 2201,
  "shadows": 4532,
  "shady": 6342,
  "shake": 1630,
  "shakes": 3836,
  "shaking": 3528,
  "shall": 5843,
  "shamp": 3268,
  "shampoo": 3274,
  "shap": 1383,
  "shape": 3042,
  "shaped": 6297,
  "shapes": 1613,
  "share": 613,
  "shared": 918,
  "shares": 6690,
  "sharing": 1285,
  "shark": 2211,
  "sharks": 6228,
  "sharp": 1605,
  "sharpen": 7959,
  "shatter": 7665,
  "shattered": 8886,
  "shave": 8229,
  "she": 159,
  "shed": 1003,
  "sheep": 2013,
  "sheet": 3392,
  "sheets": 8725,
  "shelf": 1811,
  "shell": 1500,
  "shells": 2760,
  "shelter": 3440,
  "shelves": 5681,
  "shh": 4891,
  "shield": 2953,
  "shields": 8363,
  "shimmering": 8465,
  "shin": 1349,
  "shine": 2587,
  "shined": 4202,
  "shines": 6747,
  "shing": 5300,
  "shinier": 7040,
  "shining": 1444,
  "shiny": 668,
  "ship": 2071,
  "ships": 5698,
  "shirt": 1892,
  "shirts": 5229,
  "shiver": 2477,
  "shivered": 5190,
  "shivering": 3979,
  "sho": 941,
  "shock": 4826,
  "shocked": 3180,
  "shoe": 2264,
  "shoes": 1475,
  "shone": 3885,
  "shoo": 6225,
  "shooed": 7203,
  "shook": 1655,
  "shoot": 2463,
  "shooter": 8831,
  "shooting": 4957,
  "shoots": 7677,
  "shop": 1400,
  "shopkeeper": 4170,
  "shopping": 4498,
  "shops": 6434,
  "shore": 2733,
  "short": 3123,
  "shorter": 6768,
  "shorts": 5592,
  "shot": 4352,
  "should": 718,
  "shoulder": 4046,
  "shoulders": 4810,
  "shouldn": 4479,
  "shout": 978,
  "shouted": 1137,
  "shouting": 4267,
  "shouts": 3886,
  "shovel": 3493,
  "shovels": 5642,
  "show": 514,
  "showed": 756,
  "shower": 4032,
  "showing": 2825,
  "shown": 5948,
  "shows": 2604,
  "shr": 1593,
  "shrank": 6914,
  "shrimp": 2796,
  "shrink": 3005,
  "shrinking": 5371,
  "shrinky": 6754,
  "shrug": 5023,
  "shrugged": 3972,
  "shrugs": 7488,
  "shrunk": 7716,
  "shut": 3071,
  "shy": 1651,
  "shyly": 7908,
  "si": 4251,
  "sibl": 5447,
  "siblings": 5449,
  "sick": 1806,
  "sickness": 8077,
  "sid": 8121,
  "side": 343,
  "sides": 5368,
  "sidewalk": 4446,
  "sie": 3094,
  "sienna": 7469,
  "sig": 1169,
  "sigh": 4047,
  "sighed": 2662,
  "sighs": 5115,
  "sight": 3077,
  "sights": 5041,
  "sign": 1323,
  "signal": 7569,
  "signed": 5606,
  "signing": 8542,
  "signs": 4594,
  "sil": 3085,
  "sile": 4350,
  "silence": 4575,
  "silent": 7136,
  "silently": 8691,
  "silk": 8824,
  "sill": 6102,
  "silly": 1382,
  "silver": 3129,
  "sim": 4646,
  "simon": 8577,
  "simple": 4745,
  "simply": 6599,
  "since": 4200,
  "sincere": 7491,
  "sing": 846,
  "singer": 5484,
  "singers": 8612,
  "singing": 1524,
  "single": 5610,
  "sings": 5045,
  "sink": 2925,
  "sinking": 7849,
  "sinks": 8401,
  "sion": 8625,
  "sip": 4530,
  "sipping": 8216,
  "sir": 4023,
  "siren": 5064,
  "sirens": 7017,
  "sister": 1322,
  "sisters": 4607,
  "sit": 1091,
  "sits": 4294,
  "sitting": 1436,
  "situ": 4916,
  "situation": 5251,
  "situations": 7008,
  "sity": 4030,
  "six": 4642,
  "size": 3775,
  "sizes": 4336,
  "sk": 534,
  "skate": 6816,
  "skateboard": 7355,
  "ske": 3315,
  "skeleton": 3532,
  "skelly": 6127,
  "skill": 3976,
  "skills": 4343,
  "skin": 2976,
  "skip": 2930,
  "skipped": 2946,
  "skipping": 4699,
  "skirt": 3477,
  "skirts": 5774,
  "skull": 3475,
  "skunk": 5815,
  "sky": 585,
  "sl": 538,
  "slam": 5531,
  "slammed": 5777,
  "slap": 3678,
  "slapped": 4280,
  "slapping": 6403,
  "slaps": 7413,
  "sle": 2878,
  "sled": 4917,
  "sleds": 7038,
  "slee": 8416,
  "sleep": 960,
  "sleeping": 2860,
  "sleeps": 7536,
  "sleepy": 1925,
  "sleigh": 7932,
  "slept": 2989,
  "slice": 4720,
  "slices": 8076,
  "slid": 1840,
  "slide": 797,
  "slider": 8679,
  "slides": 3057,
  "sliding": 4315,
  "slim": 4804,
  "slime": 7736,
  "slimy": 4849,
  "slinky": 6537,
  "slip": 3693,
  "slipp": 3547,
  "slipped": 2701,
  "slippery": 3781,
  "slipping": 5913,
  "slips": 6859,
  "slither": 5988,
  "slithered": 6849,
  "slow": 1066,
  "slowed": 5792,
  "slower": 5991,
  "slowly": 1597,
  "slows": 8664,
  "slug": 7255,
  "sly": 6278,
  "sm": 239,
  "small": 380,
  "smaller": 2325,
  "smallest": 5169,
  "smar": 4855,
  "smart": 1370,
  "smarter": 5167,
  "smartest": 7094,
  "smash": 7963,
  "smashed": 6347,
  "smell": 1053,
  "smelled": 2048,
  "smelling": 6294,
  "smells": 3902,
  "smelly": 1768,
  "smelt": 8219,
  "smile": 710,
  "smiled": 383,
  "smiles": 1411,
  "smiley": 5185,
  "smiling": 2065,
  "smith": 4477,
  "smo": 1736,
  "smoke": 2663,
  "smooth": 1758,
  "smoother": 6883,
  "smoothly": 8846,
  "sn": 828,
  "sna": 840,
  "snack": 1611,
  "snacks": 2239,
  "snail": 4192,
  "snails": 8355,
  "snake": 1372,
  "snakes": 4786,
  "snap": 3203,
  "snapped": 4282,
  "snapping": 7279,
  "snaps": 8452,
  "snar": 6791,
  "snarled": 7319,
  "snatch": 8557,
  "snatched": 5314,
  "sne": 3437,
  "sneak": 4549,
  "sneaked": 4822,
  "sneaks": 7482,
  "sneaky": 4940,
  "snee": 2429,
  "sneeze": 3654,
  "sneezed": 3934,
  "sneezes": 7548,
  "sneezing": 5693,
  "sneezy": 8037,
  "sniff": 2806,
  "sniffed": 3652,
  "sniffing": 6173,
  "sniffled": 6363,
  "sniffling": 7895,
  "sniffs": 6303,
  "snip": 7601,
  "snipped": 7630,
  "snoring": 8227,
  "snorted": 6579,
  "snow": 1105,
  "snowball": 4309,
  "snowballs": 5263,
  "snowed": 8640,
  "snowf": 6983,
  "snowfla": 7034,
  "snowflakes": 7155,
  "snowing": 7462,
  "snowman": 1767,
  "snowmen": 5568,
  "snowy": 4060,
  "snuck": 5918,
  "snug": 6830,
  "snugg": 4069,
  "snuggle": 8756,
  "snuggled": 4427,
  "snuggles": 5821,
  "snuggly": 8621,
  "so": 218,
  "soak": 4281,
  "soaked": 4430,
  "soaking": 6059,
  "soap": 2205,
  "soapy": 8070,
  "soar": 2902,
  "soared": 4717,
  "soaring": 5387,
  "sobbed": 5377,
  "soc": 4219,
  "soccer": 4227,
  "sock": 2188,
  "socks": 4018,
  "sof": 738,
  "sofa": 3264,
  "sofia": 5497,
  "soft": 772,
  "softe": 6486,
  "softened": 8056,
  "softer": 5559,
  "softest": 7793,
  "softly": 3888,
  "softness": 8022,
  "softy": 5760,
  "soil": 3796,
  "sol": 2183,
  "sold": 2229,
  "soldier": 3102,
  "soldiers": 4677,
  "solut": 5886,
  "solute": 7320,
  "solutely": 7658,
  "solution": 6038,
  "solve": 2847,
  "solved": 4279,
  "solving": 5952,
  "some": 412,
  "somebody": 5265,
  "someday": 4328,
  "someone": 1335,
  "somet": 373,
  "something": 398,
  "sometimes": 1047,
  "somewhere": 3835,
  "son": 3509,
  "song": 991,
  "songs": 1711,
  "sons": 8828,
  "soon": 704,
  "sooner": 8023,
  "soot": 7067,
  "soothing": 8651,
  "soph": 3632,
  "sophia": 7313,
  "sophie": 3733,
  "sor": 543,
  "sore": 4737,
  "sorry": 564,
  "sort": 2886,
  "sorted": 4357,
  "sorting": 4117,
  "sorts": 4277,
  "sou": 6766,
  "sound": 911,
  "sounded": 3852,
  "sounds": 1694,
  "soup": 1385,
  "sour": 1751,
  "source": 6042,
  "sources": 8761,
  "souvenir": 7183,
  "sp": 257,
  "space": 2220,
  "spaces": 7659,
  "spaceship": 5021,
  "spade": 3938,
  "spades": 8260,
  "spaghetti": 2544,
  "spap": 3093,
  "spark": 1550,
  "sparkle": 4319,
  "sparkled": 4075,
  "sparkles": 5117,
  "sparkling": 4771,
  "sparkly": 3298,
  "sparks": 5839,
  "sparky": 4797,
  "spat": 5763,
  "spe": 1698,
  "speak": 2889,
  "speaker": 7965,
  "speaking": 5516,
  "spear": 3126,
  "speci": 619,
  "special": 620,
  "speck": 7982,
  "sped": 7339,
  "speed": 2294,
  "speeding": 6187,
  "speeds": 7949,
  "speedy": 4116,
  "spell": 3250,
  "spells": 5146,
  "spend": 2900,
  "spending": 4672,
  "spent": 2436,
  "spice": 6215,
  "spices": 6255,
  "spicy": 1914,
  "spid": 1900,
  "spider": 2023,
  "spiders": 5200,
  "spidey": 6385,
  "spidy": 7624,
  "spied": 7771,
  "spies": 7153,
  "spike": 2657,
  "spikes": 5188,
  "spiky": 6386,
  "spill": 2656,
  "spilled": 3140,
  "spilling": 7162,
  "spills": 6257,
  "spin": 1565,
  "spinach": 8649,
  "spinning": 3065,
  "spinny": 6573,
  "spins": 5322,
  "spirit": 2969,
  "spit": 3110,
  "spits": 6009,
  "spl": 1160,
  "splas": 1810,
  "splash": 1805,
  "splashed": 2164,
  "splashes": 5091,
  "splashing": 4080,
  "splinters": 8815,
  "split": 2871,
  "splitting": 8771,
  "spo": 1927,
  "spoil": 3761,
  "spoiled": 2396,
  "spoiling": 6934,
  "spoke": 3584,
  "spoken": 7969,
  "sponge": 5454,
  "spooky": 8288,
  "spoon": 1631,
  "spoonful": 6344,
  "spoons": 4584,
  "sport": 3365,
  "sports": 5262,
  "spot": 379,
  "spots": 4009,
  "spotted": 2650,
  "spout": 8653,
  "spr": 4112,
  "sprang": 5537,
  "spray": 1978,
  "sprayed": 4073,
  "spraying": 5013,
  "sprays": 6692,
  "spread": 2253,
  "spreading": 5487,
  "spring": 2022,
  "springing": 6499,
  "springtime": 8712,
  "sprink": 4657,
  "sprinkle": 7747,
  "sprinkled": 6627,
  "sprinkles": 5218,
  "sprung": 8033,
  "spud": 8008,
  "spun": 2992,
  "spy": 6880,
  "squ": 732,
  "square": 2177,
  "squares": 5499,
  "squash": 2368,
  "squaw": 6488,
  "squawked": 7238,
  "sque": 2070,
  "squeak": 6172,
  "squeaked": 5722,
  "squeaky": 4083,
  "squeal": 6107,
  "squealed": 6856,
  "squee": 2793,
  "squeeze": 3822,
  "squeezed": 4337,
  "squeezes": 7455,
  "squeezing": 5944,
  "squinted": 7854,
  "squir": 842,
  "squirrel": 845,
  "squirrels": 3452,
  "squish": 5326,
  "squished": 7501,
  "squishy": 5490,
  "ss": 415,
  "ssa": 7018,
  "sse": 5685,
  "sses": 3517,
  "ssible": 4666,
  "ssil": 8083,
  "ssy": 6665,
  "st": 191,
  "sta": 6796,
  "stable": 3455,
  "stack": 3198,
  "stacked": 6528,
  "stacking": 7635,
  "stacy": 7439,
  "stad": 3642,
  "stadium": 3644,
  "staff": 2943,
  "staffs": 7394,
  "stage": 2665,
  "stain": 5597,
  "stained": 8226,
  "stains": 7190,
  "stair": 3823,
  "stairs": 3322,
  "stal": 3213,
  "stalk": 6569,
  "stall": 6592,
  "stalls": 8805,
  "stam": 8470,
  "stammered": 8688,
  "stamp": 2470,
  "stamped": 6420,
  "stamps": 4744,
  "stan": 6535,
  "stand": 1445,
  "standing": 2347,
  "stands": 5404,
  "star": 329,
  "stare": 5057,
  "stared": 3309,
  "stares": 8796,
  "starfish": 5076,
  "staring": 5429,
  "starry": 5689,
  "stars": 1803,
  "start": 1549,
  "started": 369,
  "starting": 4195,
  "startled": 5181,
  "starts": 3890,
  "stat": 2584,
  "station": 2899,
  "statue": 2667,
  "statues": 6773,
  "stay": 720,
  "stayed": 1197,
  "staying": 4931,
  "stays": 5432,
  "ste": 1023,
  "steady": 5558,
  "steak": 2204,
  "steaks": 8667,
  "steal": 2242,
  "stealing": 4254,
  "steam": 3874,
  "steel": 4057,
  "steep": 4889,
  "steeper": 8850,
  "steer": 5665,
  "steered": 8308,
  "steering": 7073,
  "stella": 5648,
  "stem": 5561,
  "step": 1804,
  "stepped": 1854,
  "stepping": 7108,
  "steppy": 6268,
  "steps": 3221,
  "ster": 971,
  "sterday": 4321,
  "stered": 7570,
  "stern": 5240,
  "sternly": 6575,
  "sters": 4395,
  "steth": 7457,
  "stethoscope": 7500,
  "steve": 4436,
  "steven": 7780,
  "stew": 5699,
  "stic": 3505,
  "stick": 722,
  "sticker": 3684,
  "stickers": 3577,
  "sticking": 4878,
  "sticks": 1869,
  "sticky": 4035,
  "still": 702,
  "sting": 4806,
  "stinging": 8848,
  "stings": 6512,
  "stinky": 7974,
  "stir": 1931,
  "stirred": 3573,
  "stirring": 4442,
  "stirs": 6539,
  "stit": 6142,
  "stitch": 3916,
  "stitches": 6292,
  "sto": 728,
  "stole": 4719,
  "stolen": 6048,
  "stom": 3436,
  "stomach": 3689,
  "stomachs": 6735,
  "stomp": 7093,
  "stomped": 7186,
  "stomping": 8889,
  "stone": 1305,
  "stones": 2649,
  "stood": 2155,
  "stool": 5657,
  "stop": 963,
  "stopped": 775,
  "stopping": 6029,
  "stops": 3595,
  "stor": 618,
  "store": 835,
  "stored": 7526,
  "storekeeper": 6392,
  "stores": 6712,
  "stories": 1684,
  "storm": 1672,
  "storms": 6874,
  "story": 751,
  "stove": 2586,
  "str": 560,
  "stra": 1983,
  "straight": 4463,
  "strange": 1453,
  "stranger": 3067,
  "strangers": 4622,
  "straw": 2206,
  "strawberries": 3783,
  "strawberry": 2982,
  "stray": 8364,
  "stre": 1495,
  "stream": 2945,
  "streamers": 6432,
  "street": 1622,
  "streets": 6506,
  "streng": 4109,
  "strength": 4142,
  "stret": 1872,
  "stretch": 2441,
  "stretched": 3344,
  "stretches": 7223,
  "stretching": 4781,
  "stretchy": 6390,
  "stri": 2413,
  "strike": 4226,
  "strikes": 8644,
  "striking": 7805,
  "string": 1715,
  "strings": 4809,
  "strip": 3821,
  "stripe": 8618,
  "stripes": 4905,
  "strips": 6227,
  "stro": 4447,
  "stroke": 7109,
  "stroked": 5565,
  "strokes": 7368,
  "stroking": 8489,
  "stroll": 5916,
  "strolled": 7343,
  "stroller": 8791,
  "strong": 726,
  "stronger": 2809,
  "strongest": 5643,
  "struck": 5197,
  "structure": 4002,
  "structures": 8668,
  "strugg": 3590,
  "struggle": 4696,
  "struggled": 4981,
  "struggling": 5011,
  "strum": 6844,
  "strummed": 8875,
  "stu": 1235,
  "stubb": 2492,
  "stubborn": 2499,
  "stubbornness": 8698,
  "stuck": 1120,
  "stud": 4139,
  "stude": 4403,
  "student": 5587,
  "students": 4892,
  "studied": 4239,
  "studies": 8087,
  "study": 2272,
  "studying": 4528,
  "stuff": 2307,
  "stuffed": 4335,
  "stuffing": 6007,
  "stum": 3230,
  "stumble": 5664,
  "stumbled": 3563,
  "stumbling": 8287,
  "stump": 8021,
  "stun": 6580,
  "stung": 5812,
  "stunned": 8454,
  "stunning": 7626,
  "stupid": 2260,
  "sturdy": 8333,
  "sty": 4006,
  "style": 4136,
  "styles": 6966,
  "su": 251,
  "sual": 2358,
  "sub": 3601,
  "submar": 7938,
  "submarine": 8073,
  "subway": 3725,
  "succe": 1733,
  "succeed": 3177,
  "succeeded": 5053,
  "succeeding": 8028,
  "success": 2160,
  "successful": 2813,
  "successfully": 7545,
  "such": 1960,
  "sudden": 3767,
  "suddenly": 862,
  "sue": 331,
  "sues": 8695,
  "suff": 3985,
  "suffer": 4346,
  "suffered": 5438,
  "suffering": 6399,
  "sug": 1693,
  "sugar": 2012,
  "suggest": 3383,
  "suggested": 3879,
  "suggestion": 8141,
  "suggestions": 8682,
  "suggests": 7943,
  "suit": 2365,
  "suitcase": 6992,
  "suits": 6921,
  "suki": 5888,
  "sum": 8025,
  "summer": 3526,
  "sun": 427,
  "sunb": 8567,
  "sunday": 4440,
  "sundays": 7181,
  "sunflower": 2443,
  "sunflowers": 6677,
  "sung": 8159,
  "sunglasses": 2632,
  "sunk": 8794,
  "sunlight": 5231,
  "sunny": 819,
  "sunrise": 4382,
  "suns": 6946,
  "sunscreen": 5820,
  "sunset": 3419,
  "sunshine": 2589,
  "super": 3160,
  "superhero": 3570,
  "superheroes": 5339,
  "supp": 1963,
  "supper": 8431,
  "suppl": 7985,
  "supplied": 8116,
  "supplies": 5520,
  "supply": 4133,
  "support": 2819,
  "supported": 5614,
  "supporting": 6721,
  "supports": 8662,
  "supposed": 4867,
  "sur": 530,
  "sure": 1171,
  "surely": 7818,
  "surf": 3091,
  "surface": 5533,
  "surfboard": 6036,
  "surfed": 8132,
  "surfing": 5604,
  "surpr": 547,
  "surprise": 1015,
  "surprised": 678,
  "surprises": 3582,
  "surprising": 6084,
  "surprisingly": 8245,
  "surrender": 3735,
  "surrendered": 7512,
  "surround": 4451,
  "surrounded": 5019,
  "surroundings": 5696,
  "surv": 7766,
  "survive": 7940,
  "sus": 7636,
  "susan": 7791,
  "susie": 4105,
  "susp": 7646,
  "suspicious": 7653,
  "suzie": 5543,
  "suzy": 4486,
  "sw": 428,
  "swall": 5456,
  "swallow": 6758,
  "swallowed": 6212,
  "swam": 1143,
  "swamp": 3765,
  "swan": 2195,
  "swans": 7449,
  "swap": 6231,
  "sway": 5985,
  "swayed": 7830,
  "swaying": 7185,
  "swe": 863,
  "sweat": 4966,
  "sweater": 2947,
  "sweaters": 6465,
  "sweaty": 5858,
  "sweep": 6426,
  "sweeping": 8680,
  "sweet": 942,
  "sweeter": 7557,
  "sweetest": 6706,
  "sweetheart": 4037,
  "sweetie": 3428,
  "sweeties": 4877,
  "sweetly": 8527,
  "sweets": 5506,
  "swept": 5875,
  "swim": 1055,
  "swimmer": 5790,
  "swimming": 2004,
  "swims": 5373,
  "swimsu": 6179,
  "swimsuit": 7850,
  "swimsuits": 6912,
  "swing": 1006,
  "swinging": 3215,
  "swings": 1482,
  "swingset": 8182,
  "swir": 8420,
  "swirls": 8249,
  "swit": 5412,
  "switch": 3537,
  "switched": 5851,
  "switches": 7184,
  "swo": 6305,
  "swollen": 6312,
  "swoop": 5474,
  "swooped": 5714,
  "sword": 2223,
  "swords": 5743,
  "swung": 3341,
  "sy": 1617,
  "sylvia": 8133,
  "symbol": 3488,
  "symbols": 6739,
  "syringe": 8068,
  "syrup": 6776,
  "t": 116,
  "ta": 354,
  "table": 990,
  "tables": 5737,
  "tablet": 8145,
  "tag": 2739,
  "tage": 6903,
  "tail": 970,
  "tails": 4955,
  "take": 533,
  "taken": 2714,
  "taker": 8398,
  "takes": 1881,
  "taking": 1674,
  "tal": 647,
  "tale": 4326,
  "talent": 4933,
  "talented": 5980,
  "talents": 5773,
  "tales": 8455,
  "talk": 916,
  "talked": 1320,
  "talking": 1407,
  "talks": 6020,
  "tall": 958,
  "taller": 3296,
  "tallest": 4551,
  "tam": 5941,
  "tamia": 8413,
  "tangled": 5617,
  "tank": 2738,
  "tanks": 7952,
  "tantrum": 7563,
  "tap": 3217,
  "tape": 1889,
  "taped": 6202,
  "tapped": 6541,
  "tapping": 6152,
  "taps": 7692,
  "tar": 8002,
  "tara": 5361,
  "task": 3164,
  "tasks": 5433,
  "tast": 1229,
  "taste": 1708,
  "tasted": 2326,
  "tastes": 4404,
  "tastiest": 8609,
  "tasting": 6055,
  "tasty": 1458,
  "tato": 6519,
  "taught": 2352,
  "taxi": 3899,
  "taylor": 8069,
  "te": 193,
  "tea": 1836,
  "teac": 1476,
  "teach": 1578,
  "teacher": 1541,
  "teachers": 6669,
  "teaches": 4789,
  "teaching": 4050,
  "tead": 1401,
  "team": 1875,
  "teams": 6873,
  "teamwork": 5030,
  "teapot": 6317,
  "tear": 2062,
  "tearing": 5502,
  "tears": 3012,
  "teas": 2922,
  "tease": 3815,
  "teased": 5348,
  "teasing": 4756,
  "teaspoon": 3453,
  "ted": 292,
  "teddy": 1381,
  "teeth": 2194,
  "tek": 8570,
  "tele": 2107,
  "telephone": 2995,
  "telescope": 7614,
  "television": 3272,
  "tell": 995,
  "telling": 3544,
  "tells": 2494,
  "temp": 2405,
  "temper": 6119,
  "temperature": 6752,
  "temple": 2600,
  "tempted": 7330,
  "tempting": 8286,
  "ten": 1135,
  "tend": 6814,
  "tender": 7801,
  "tent": 1995,
  "tentacles": 7031,
  "tention": 4359,
  "tents": 7176,
  "ter": 270,
  "teresa": 6959,
  "tern": 3053,
  "terri": 2282,
  "terrible": 2363,
  "terrified": 6673,
  "terry": 8215,
  "ters": 5834,
  "test": 2148,
  "tested": 5775,
  "testing": 7119,
  "tests": 7654,
  "texture": 4721,
  "th": 163,
  "tha": 6057,
  "than": 559,
  "thank": 606,
  "thanked": 685,
  "thankful": 2432,
  "thankfully": 8053,
  "thanking": 7303,
  "thanks": 3777,
  "thanksg": 7377,
  "thanksgiving": 7600,
  "that": 220,
  "the": 128,
  "theat": 6783,
  "theater": 3533,
  "theatre": 7089,
  "their": 293,
  "theirs": 4768,
  "them": 315,
  "themselves": 2987,
  "then": 361,
  "theo": 7263,
  "ther": 5143,
  "there": 231,
  "thermometer": 3411,
  "these": 1955,
  "thest": 5826,
  "they": 149,
  "thick": 2321,
  "thicker": 8520,
  "thie": 7173,
  "thief": 2915,
  "thieves": 7210,
  "thin": 1780,
  "thing": 868,
  "things": 440,
  "think": 888,
  "thinking": 2968,
  "thinks": 1594,
  "thinner": 8880,
  "third": 5666,
  "thirsty": 2536,
  "this": 457,
  "thomas": 5207,
  "thorn": 5719,
  "thorns": 6331,
  "those": 3025,
  "though": 1976,
  "thought": 393,
  "thoughtful": 2406,
  "thoughts": 6530,
  "thous": 8190,
  "thousand": 8384,
  "thr": 849,
  "thread": 3339,
  "threat": 4742,
  "threats": 8816,
  "three": 1189,
  "threw": 1244,
  "thrill": 4660,
  "thrilled": 4814,
  "thro": 5333,
  "throat": 5390,
  "throne": 8616,
  "through": 1119,
  "throughout": 6556,
  "throw": 1416,
  "throwing": 4014,
  "thrown": 6133,
  "throws": 4013,
  "ths": 5765,
  "thu": 2595,
  "thud": 5089,
  "thumb": 4149,
  "thumbs": 8026,
  "thump": 7613,
  "thunder": 2869,
  "thundercloud": 6982,
  "thunderstorm": 8593,
  "thur": 6310,
  "thy": 1313,
  "ti": 2502,
  "tia": 6060,
  "tibby": 6717,
  "tick": 2263,
  "ticket": 2979,
  "tickets": 5253,
  "tickle": 4938,
  "tickled": 5517,
  "tickles": 8107,
  "tickling": 8504,
  "tid": 1826,
  "tide": 4329,
  "tidied": 7051,
  "tidier": 8102,
  "tidy": 1874,
  "tidying": 8376,
  "tie": 1967,
  "tied": 2548,
  "ties": 6626,
  "tig": 5876,
  "tiger": 2333,
  "tigers": 5977,
  "tight": 1248,
  "tighter": 5801,
  "tightly": 3669,
  "tiles": 8885,
  "tilly": 4243,
  "tilted": 8863,
  "tim": 160,
  "time": 234,
  "timer": 4991,
  "times": 2773,
  "timid": 7704,
  "timidly": 8774,
  "timmy": 1041,
  "tin": 6099,
  "tina": 3583,
  "ting": 892,
  "tingle": 8507,
  "tingling": 7137,
  "tiny": 981,
  "tip": 3575,
  "tipped": 5958,
  "tippy": 5656,
  "tips": 8407,
  "tipto": 5832,
  "tiptoed": 6247,
  "tiptoes": 8797,
  "tire": 2879,
  "tired": 858,
  "tires": 6104,
  "tis": 5655,
  "tissue": 5896,
  "tissues": 8800,
  "tit": 4754,
  "titi": 4853,
  "tizzy": 6920,
  "tle": 1009,
  "to": 131,
  "toad": 6507,
  "toast": 2644,
  "toaster": 5758,
  "toby": 3114,
  "tock": 6240,
  "today": 1237,
  "todd": 4834,
  "toddler": 5194,
  "toe": 3045,
  "toes": 4433,
  "together": 284,
  "toile": 3578,
  "toilet": 3622,
  "told": 535,
  "tom": 245,
  "tomato": 2143,
  "tomatoes": 3703,
  "tommy": 1544,
  "tomorrow": 2103,
  "ton": 1260,
  "tong": 4242,
  "tongue": 4299,
  "tonight": 4373,
  "tony": 4600,
  "too": 255,
  "took": 422,
  "tool": 2416,
  "toolbox": 6977,
  "tools": 3833,
  "toot": 5621,
  "tooth": 3598,
  "toothbrush": 8685,
  "top": 945,
  "topp": 7945,
  "toppings": 8221,
  "tops": 6120,
  "tor": 3037,
  "tore": 4438,
  "torn": 3038,
  "tornado": 3936,
  "tory": 4670,
  "toss": 5031,
  "tossed": 6071,
  "tossing": 7486,
  "tot": 6339,
  "toto": 4367,
  "tou": 853,
  "toucan": 6984,
  "touch": 1048,
  "touched": 1648,
  "touches": 5652,
  "touching": 4929,
  "toug": 2349,
  "tough": 2366,
  "tour": 4070,
  "tours": 7657,
  "tow": 565,
  "toward": 6647,
  "towards": 1700,
  "towel": 2075,
  "towels": 5620,
  "tower": 1310,
  "towers": 3020,
  "town": 769,
  "towns": 7987,
  "townspe": 8864,
  "toy": 273,
  "toys": 416,
  "tr": 536,
  "tra": 715,
  "track": 3463,
  "tracks": 4025,
  "tractor": 5152,
  "trade": 3800,
  "traded": 5074,
  "trader": 8610,
  "trading": 6821,
  "traffic": 3650,
  "trail": 3060,
  "trailer": 7826,
  "trails": 8199,
  "train": 1044,
  "trains": 3442,
  "trampoline": 5671,
  "transform": 7315,
  "transformed": 7701,
  "trap": 3137,
  "trapped": 4716,
  "traps": 7956,
  "trash": 3585,
  "trave": 4325,
  "travel": 2790,
  "traveled": 4856,
  "traveling": 6829,
  "travell": 5349,
  "travelled": 6040,
  "travelling": 6589,
  "travels": 6969,
  "tray": 3022,
  "trays": 8684,
  "tre": 288,
  "treas": 7257,
  "treasure": 1516,
  "treasured": 7719,
  "treasures": 4559,
  "treat": 1173,
  "treated": 7191,
  "treats": 1728,
  "tree": 320,
  "treehouse": 5992,
  "trees": 1005,
  "treet": 7992,
  "treetops": 8830,
  "trem": 3897,
  "tremble": 4079,
  "trembled": 6130,
  "trembling": 4484,
  "trey": 8724,
  "tri": 873,
  "triangle": 2654,
  "triangles": 7010,
  "trick": 2475,
  "tricked": 4913,
  "tricks": 2612,
  "tricky": 5337,
  "tried": 459,
  "tries": 2116,
  "trigger": 7538,
  "trim": 7991,
  "trip": 1667,
  "tripped": 2970,
  "trips": 4835,
  "triumph": 8562,
  "trixie": 6027,
  "troph": 3391,
  "trophy": 3421,
  "trot": 7941,
  "trou": 1512,
  "trouble": 1979,
  "troubled": 2439,
  "troubles": 6170,
  "tru": 5274,
  "truck": 784,
  "truckie": 8427,
  "trucko": 7503,
  "trucks": 3426,
  "trucky": 6897,
  "trudged": 8874,
  "true": 1664,
  "truly": 5358,
  "trump": 2672,
  "trumpet": 2673,
  "trumpets": 8142,
  "trunk": 2788,
  "trust": 2041,
  "trusted": 4019,
  "trusting": 5923,
  "trusts": 7749,
  "truth": 2881,
  "try": 591,
  "trying": 1115,
  "ts": 1423,
  "tu": 2309,
  "tub": 3922,
  "tube": 3482,
  "tubes": 6171,
  "tuck": 5906,
  "tucked": 4396,
  "tucks": 8551,
  "tuesday": 4270,
  "tug": 4167,
  "tugged": 4875,
  "tugging": 8016,
  "tum": 5464,
  "tumbled": 6447,
  "tumbling": 7437,
  "tummies": 6372,
  "tummy": 3156,
  "tun": 1958,
  "tuna": 3739,
  "tune": 5003,
  "tunes": 6877,
  "tunnel": 2675,
  "tunnels": 5376,
  "tur": 577,
  "ture": 745,
  "turkey": 2516,
  "turn": 897,
  "turned": 1016,
  "turning": 4664,
  "turns": 1178,
  "turtle": 1650,
  "turtles": 5715,
  "tutor": 3951,
  "tv": 2003,
  "tw": 595,
  "tweet": 2870,
  "tweetie": 5613,
  "tweets": 8448,
  "tweety": 6851,
  "twenty": 7448,
  "twice": 6098,
  "twig": 2808,
  "twigs": 4766,
  "twin": 4820,
  "twink": 4176,
  "twinkle": 5002,
  "twinkled": 6062,
  "twinkling": 5579,
  "twins": 1656,
  "twir": 3656,
  "twirl": 5228,
  "twirled": 4372,
  "twirling": 5728,
  "twist": 2412,
  "twisted": 4284,
  "twisting": 5831,
  "twists": 6046,
  "twisty": 4962,
  "twitched": 8534,
  "two": 805,
  "ty": 400,
  "tying": 6408,
  "tyke": 8753,
  "tyler": 7962,
  "type": 6950,
  "types": 8315,
  "u": 117,
  "ua": 8471,
  "ual": 5126,
  "ually": 1944,
  "uardo": 7229,
  "ub": 1739,
  "uc": 3029,
  "uce": 2280,
  "ucet": 3216,
  "uck": 456,
  "ucked": 5949,
  "ucky": 1472,
  "uct": 4230,
  "uction": 8536,
  "uctor": 7110,
  "ucture": 4000,
  "ucy": 453,
  "ud": 4773,
  "udged": 8003,
  "ue": 403,
  "ued": 1298,
  "uel": 5824,
  "ues": 5114,
  "uest": 4837,
  "uff": 690,
  "uffy": 736,
  "ug": 265,
  "ugg": 2137,
  "ugged": 3256,
  "ugging": 7065,
  "ugh": 8803,
  "ught": 869,
  "ughter": 2078,
  "ughty": 1574,
  "ugly": 1599,
  "uh": 5062,
  "uing": 6095,
  "uise": 7016,
  "uit": 1004,
  "uitar": 2328,
  "ul": 319,
  "ula": 7099,
  "ulance": 3049,
  "ular": 1774,
  "ule": 8769,
  "ulf": 6467,
  "uli": 2863,
  "ulia": 8269,
  "ulie": 4876,
  "ull": 870,
  "ulous": 8495,
  "ult": 1957,
  "ults": 5145,
  "ulu": 2660,
  "um": 314,
  "umb": 3602,
  "umber": 3066,
  "umbling": 5956,
  "umbre": 2836,
  "umbrell": 7939,
  "umbrella": 2895,
  "umbrellas": 7957,
  "ume": 2414,
  "umed": 8361,
  "ument": 5367,
  "umes": 4572,
  "ummy": 687,
  "ump": 455,
  "umph": 6066,
  "umphrey": 6651,
  "umpled": 8204,
  "umpy": 1604,
  "un": 196,
  "una": 5016,
  "unable": 6674,
  "unch": 3813,
  "unched": 7345,
  "uncle": 2645,
  "uncomfortable": 2449,
  "und": 5840,
  "under": 561,
  "underground": 4569,
  "underne": 5798,
  "underneath": 5808,
  "underst": 1172,
  "understand": 1348,
  "understanding": 4450,
  "understands": 6960,
  "understood": 2300,
  "underwater": 7490,
  "undo": 8491,
  "undone": 7098,
  "une": 5740,
  "unex": 681,
  "unexpected": 682,
  "unf": 5242,
  "unfamiliar": 6079,
  "unfor": 8238,
  "unforget": 8262,
  "unforgettable": 8375,
  "unfortunately": 5138,
  "ung": 1794,
  "unhappy": 4051,
  "uni": 1822,
  "unic": 4513,
  "unicorn": 4514,
  "unicorns": 7903,
  "uniform": 4065,
  "uniforms": 6361,
  "unique": 2121,
  "unite": 3691,
  "united": 5225,
  "uniting": 8789,
  "univer": 3354,
  "universe": 4452,
  "university": 4090,
  "unk": 1972,
  "unkind": 8549,
  "unknown": 2167,
  "unless": 7795,
  "unlike": 8642,
  "unlo": 2549,
  "unlock": 3098,
  "unlocked": 4507,
  "unny": 755,
  "unpa": 5578,
  "unpack": 3393,
  "unpacked": 5601,
  "unpacking": 8757,
  "unsc": 8410,
  "unscrew": 8635,
  "unst": 8530,
  "unsure": 5853,
  "unt": 705,
  "untangle": 7300,
  "untangled": 8879,
  "unted": 8139,
  "untie": 5130,
  "untied": 5418,
  "until": 714,
  "untw": 7269,
  "untwisted": 8289,
  "unusual": 2367,
  "unwra": 6080,
  "unwrap": 7205,
  "unwrapped": 7596,
  "up": 205,
  "upid": 6890,
  "upin": 6855,
  "upine": 7412,
  "upon": 268,
  "ups": 4419,
  "upset": 1735,
  "upside": 7410,
  "upstairs": 4107,
  "ur": 330,
  "urb": 2821,
  "urch": 3236,
  "urday": 6606,
  "urdy": 8153,
  "ure": 465,
  "ured": 3451,
  "uren": 5983,
  "urge": 4259,
  "urged": 4605,
  "urging": 7479,
  "uring": 3166,
  "urn": 7086,
  "urry": 5759,
  "urs": 8568,
  "urt": 622,
  "ury": 4774,
  "us": 855,
  "use": 839,
  "used": 848,
  "useful": 2197,
  "uses": 5555,
  "ush": 5293,
  "ushed": 6323,
  "using": 2577,
  "ust": 466,
  "ustom": 5472,
  "usual": 2359,
  "usually": 5324,
  "ut": 175,
  "ute": 2184,
  "utes": 3148,
  "uth": 2807,
  "utor": 3943,
  "utter": 4794,
  "v": 118,
  "va": 6644,
  "vac": 3966,
  "vacation": 3974,
  "val": 1852,
  "valley": 3925,
  "valleys": 7507,
  "valu": 2972,
  "valuable": 3043,
  "value": 2843,
  "valued": 4994,
  "values": 8185,
  "van": 2076,
  "vanilla": 5460,
  "vanish": 4581,
  "vanished": 4103,
  "vanishing": 8751,
  "vas": 7468,
  "vase": 2417,
  "ve": 189,
  "ved": 248,
  "vegetable": 2291,
  "vegetables": 2683,
  "veh": 3722,
  "vehic": 3724,
  "vehicle": 3876,
  "vehicles": 6518,
  "veil": 3243,
  "vel": 1312,
  "velv": 3949,
  "velvet": 3957,
  "ven": 579,
  "vend": 3238,
  "vending": 8439,
  "vendor": 3312,
  "venir": 7133,
  "vent": 779,
  "venture": 8402,
  "ventured": 5496,
  "ver": 173,
  "veral": 6716,
  "vered": 7084,
  "vering": 8314,
  "vers": 6116,
  "verse": 3273,
  "very": 194,
  "ves": 1334,
  "vest": 3625,
  "vests": 6533,
  "vet": 4563,
  "veterinarian": 3808,
  "vi": 3435,
  "via": 6757,
  "vibrant": 6910,
  "vice": 3788,
  "vict": 5061,
  "victorious": 8869,
  "victory": 5184,
  "vide": 3056,
  "video": 3280,
  "videos": 5920,
  "view": 3115,
  "views": 8435,
  "vill": 1608,
  "villag": 5255,
  "village": 1677,
  "villager": 8845,
  "villagers": 5280,
  "villages": 8834,
  "vin": 5410,
  "vince": 7973,
  "vine": 2916,
  "vines": 5260,
  "ving": 583,
  "viol": 3579,
  "violet": 6431,
  "violin": 3580,
  "vious": 8736,
  "vis": 1345,
  "vision": 3242,
  "visit": 1390,
  "visited": 4540,
  "visiting": 5081,
  "visitor": 6511,
  "visitors": 5942,
  "visits": 6521,
  "vitam": 8035,
  "viv": 5512,
  "vivi": 5692,
  "vo": 934,
  "voice": 1001,
  "voices": 4615,
  "vol": 3338,
  "volcan": 3395,
  "volcano": 3420,
  "volly": 6972,
  "volunt": 8590,
  "vous": 2115,
  "vowed": 5507,
  "vroom": 4033,
  "vy": 8607,
  "w": 119,
  "wa": 133,
  "wadd": 6822,
  "waddled": 7463,
  "waded": 6451,
  "waff": 3011,
  "waffle": 3610,
  "waffles": 4650,
  "wag": 1103,
  "wagged": 1432,
  "wagging": 4387,
  "wagon": 2273,
  "wags": 4193,
  "waist": 4634,
  "waistband": 7265,
  "waistbands": 7842,
  "wait": 856,
  "waited": 1204,
  "waiter": 5612,
  "waiting": 1929,
  "waits": 4497,
  "wake": 2250,
  "wakes": 5778,
  "waking": 6295,
  "wal": 405,
  "walk": 711,
  "walked": 569,
  "walking": 1013,
  "walks": 2744,
  "wall": 1104,
  "wallet": 3390,
  "walls": 3101,
  "wally": 4429,
  "wand": 2085,
  "wander": 2682,
  "wandered": 4247,
  "wandering": 5600,
  "wanna": 7933,
  "want": 207,
  "wanted": 241,
  "wanting": 5032,
  "wants": 1294,
  "war": 1555,
  "ward": 1876,
  "wardrobe": 3316,
  "wards": 3676,
  "warm": 802,
  "warmed": 8278,
  "warmer": 5859,
  "warmest": 8588,
  "warmly": 6881,
  "warmth": 4718,
  "warmy": 7859,
  "warn": 3774,
  "warned": 3760,
  "warning": 4240,
  "warnings": 5212,
  "warri": 7362,
  "warriors": 7726,
  "wary": 8297,
  "was": 139,
  "wash": 1833,
  "washed": 2715,
  "washer": 2993,
  "washes": 7007,
  "washing": 4203,
  "wasn": 1818,
  "waste": 3832,
  "wasted": 5020,
  "wasting": 6069,
  "wat": 581,
  "watch": 774,
  "watched": 959,
  "watches": 4509,
  "watching": 1870,
  "water": 498,
  "watered": 4253,
  "waterfall": 6437,
  "watering": 5663,
  "watermel": 7215,
  "watermelon": 7217,
  "waters": 8783,
  "wave": 1701,
  "waved": 1222,
  "waves": 2641,
  "waving": 4179,
  "wax": 8575,
  "way": 304,
  "ways": 501,
  "we": 166,
  "weak": 1888,
  "weaker": 7214,
  "weal": 2606,
  "wealth": 6044,
  "wealthy": 2728,
  "weap": 3543,
  "weapon": 3611,
  "weapons": 7428,
  "wear": 1274,
  "wearing": 2122,
  "wears": 4862,
  "weather": 3988,
  "web": 3302,
  "webs": 7114,
  "wed": 3418,
  "wedd": 8873,
  "wedding": 4997,
  "wednesday": 3932,
  "wee": 7003,
  "weed": 7078,
  "weeds": 6155,
  "week": 2779,
  "weekend": 6201,
  "weeks": 5009,
  "weep": 3434,
  "weeping": 4571,
  "weet": 5026,
  "weety": 8358,
  "weig": 4322,
  "weigh": 3080,
  "weighed": 4554,
  "weighing": 6246,
  "weighs": 7169,
  "weight": 4074,
  "weights": 8713,
  "weird": 2135,
  "wel": 1366,
  "welcom": 4229,
  "welcome": 1441,
  "welcomed": 4366,
  "welcoming": 7028,
  "well": 1288,
  "wen": 7314,
  "wendy": 6203,
  "went": 258,
  "wept": 6412,
  "were": 240,
  "weren": 5292,
  "west": 4314,
  "wet": 1037,
  "wh": 247,
  "whale": 2203,
  "whales": 6368,
  "what": 382,
  "whatever": 5119,
  "whe": 1374,
  "wheat": 2564,
  "whee": 5247,
  "wheee": 8467,
  "wheel": 1692,
  "wheeled": 8823,
  "wheels": 2919,
  "whel": 8319,
  "whelmed": 8332,
  "when": 372,
  "whenever": 2362,
  "where": 809,
  "wherever": 4902,
  "which": 2323,
  "while": 721,
  "whimp": 6333,
  "whimpered": 6867,
  "whine": 6915,
  "whines": 7861,
  "whip": 3637,
  "whipped": 8760,
  "whips": 8652,
  "whir": 7356,
  "whis": 1275,
  "whiskers": 1568,
  "whisp": 2151,
  "whisper": 4088,
  "whispered": 2767,
  "whispering": 6991,
  "whispers": 5452,
  "whist": 1440,
  "whistle": 1681,
  "whistled": 4123,
  "whistler": 6908,
  "whistles": 5727,
  "whistling": 4383,
  "white": 1246,
  "who": 451,
  "whoever": 6033,
  "whole": 1865,
  "whoosh": 6371,
  "whose": 5258,
  "why": 1010,
  "wicked": 7696,
  "wid": 4845,
  "wide": 1718,
  "widened": 5323,
  "wider": 6424,
  "wife": 3075,
  "wig": 3664,
  "wigg": 3905,
  "wiggle": 4759,
  "wiggled": 5279,
  "wiggles": 5780,
  "wiggling": 7807,
  "wiggly": 3810,
  "wild": 1742,
  "wildflowers": 7502,
  "will": 433,
  "william": 6811,
  "willing": 6302,
  "willow": 6788,
  "willy": 6329,
  "wilted": 8764,
  "win": 1149,
  "wind": 630,
  "winding": 8369,
  "window": 1129,
  "windows": 3699,
  "windowsill": 7552,
  "winds": 7707,
  "windy": 4790,
  "wine": 3748,
  "wing": 2024,
  "wings": 1533,
  "wink": 4204,
  "winked": 5675,
  "winking": 7731,
  "winks": 6930,
  "winner": 4580,
  "winners": 6277,
  "winning": 4407,
  "wins": 5165,
  "winter": 3370,
  "wip": 2163,
  "wipe": 3773,
  "wiped": 3155,
  "wipes": 5766,
  "wiping": 6067,
  "wire": 3032,
  "wires": 5546,
  "wis": 2032,
  "wisdom": 3619,
  "wise": 1097,
  "wisely": 6491,
  "wiser": 6703,
  "wisest": 8385,
  "wish": 1321,
  "wished": 1123,
  "wishes": 2884,
  "wishing": 5494,
  "wit": 177,
  "witch": 2801,
  "with": 179,
  "within": 6180,
  "without": 1419,
  "wiz": 5007,
  "wizard": 5156,
  "wizards": 8743,
  "wo": 909,
  "wobble": 6364,
  "wobbled": 6101,
  "wobbly": 5500,
  "woke": 1560,
  "woken": 7591,
  "wolf": 1868,
  "wolves": 7270,
  "wom": 2094,
  "woman": 2096,
  "won": 1299,
  "wonder": 1106,
  "wondered": 1965,
  "wonderful": 1695,
  "wondering": 4733,
  "wonders": 4743,
  "woo": 5295,
  "wood": 1035,
  "woodcut": 7834,
  "woodcutter": 8042,
  "wooden": 4435,
  "woodpe": 7366,
  "woodpecker": 7565,
  "woods": 1216,
  "woof": 4296,
  "wool": 2814,
  "woolly": 6002,
  "wooly": 7122,
  "wor": 391,
  "word": 2543,
  "words": 1422,
  "wore": 1521,
  "work": 891,
  "worked": 896,
  "worker": 5063,
  "workers": 5550,
  "working": 1855,
  "works": 4178,
  "workshop": 7485,
  "world": 1264,
  "worm": 1743,
  "worms": 4094,
  "worn": 8817,
  "worried": 1362,
  "worries": 5382,
  "worry": 989,
  "worrying": 6373,
  "worse": 4339,
  "worst": 8065,
  "worth": 4238,
  "would": 345,
  "wouldn": 2236,
  "wound": 5182,
  "wounds": 6021,
  "wow": 968,
  "wr": 886,
  "wra": 1634,
  "wrap": 2108,
  "wrapped": 2991,
  "wrapper": 7326,
  "wrapping": 6198,
  "wraps": 5252,
  "wre": 4146,
  "wreck": 4201,
  "wrench": 8379,
  "wrigg": 7261,
  "wriggled": 7856,
  "wrink": 6299,
  "wrinkled": 6643,
  "wrist": 5799,
  "writ": 4589,
  "write": 1885,
  "writer": 6547,
  "writes": 4848,
  "writing": 3965,
  "written": 6143,
  "wrong": 1267,
  "wrote": 2480,
  "ws": 7316,
  "x": 120,
  "xi": 3754,
  "xiao": 7746,
  "xie": 5679,
  "xious": 2511,
  "xt": 201,
  "xture": 4542,
  "xury": 4888,
  "xy": 3173,
  "y": 121,
  "yacht": 2996,
  "yal": 2466,
  "yard": 940,
  "yards": 8708,
  "yarn": 2602,
  "yaw": 2856,
  "yawn": 3958,
  "yawned": 4017,
  "yawning": 8178,
  "yay": 3937,
  "ye": 2901,
  "yeah": 5385,
  "year": 1241,
  "years": 1510,
  "yed": 5700,
  "yell": 829,
  "yelled": 2080,
  "yelling": 4885,
  "yellow": 994,
  "yells": 5313,
  "yelp": 6196,
  "yelped": 6704,
  "yes": 447,
  "yesterday": 4413,
  "yet": 2711,
  "yield": 3744,
  "yielded": 5883,
  "yielding": 7758,
  "ying": 2597,
  "yippee": 8373,
  "yle": 8426,
  "ym": 2114,
  "ymbol": 3485,
  "yog": 2187,
  "yoga": 3474,
  "yogi": 7141,
  "yogurt": 3168,
  "yond": 5426,
  "you": 187,
  "young": 1620,
  "younger": 6208,
  "your": 431,
  "yours": 2556,
  "yourself": 2380,
  "yourselves": 5833,
  "youth": 4883,
  "ys": 4342,
  "yuck": 3933,
  "yucky": 4077,
  "yum": 4609,
  "yummiest": 7581,
  "yummy": 780,
  "z": 122,
  "zag": 3481,
  "zane": 7535,
  "zara": 4423,
  "ze": 1228,
  "zebra": 3849,
  "zebras": 8100,
  "zed": 2508,
  "zee": 5653,
  "zel": 7703,
  "zen": 4674,
  "zero": 4045,
  "zes": 5687,
  "zi": 6427,
  "zie": 5149,
  "zig": 3271,
  "ziggy": 5748,
  "zigzag": 3562,
  "zing": 4803,
  "zip": 2011,
  "zipp": 2746,
  "zipped": 4431,
  "zipper": 2827,
  "zipping": 7429,
  "zips": 7887,
  "zoe": 4767,
  "zoey": 6708,
  "zog": 7446,
  "zoo": 1849,
  "zookeeper": 4371,
  "zookeepers": 7188,
  "zoom": 1343,
  "zoomed": 3534,
  "zooming": 4847,
  "zooms": 5996,
  "zoomy": 3388,
  "zy": 899,
  "zz": 1259,
  "zziness": 6617,
  "zzling": 8746,
  "zzy": 1511,
  "{": 123,
  "|": 124,
  "|>": 213,
  "}": 125,
  "~": 126,
  "’.": 8365,
  "”,": 7135,
  "”.": 4909,
  "��": 502
}